{
  "version": "1.0",
  "truncation": null,
  "padding": null,
  "added_tokens": [
    {
      "id": 0,
      "content": "<[EOS]>",
      "single_word": false,
      "lstrip": false,
      "rstrip": false,
      "normalized": false,
      "special": true
    }
  ],
  "normalizer": null,
  "pre_tokenizer": {
    "type": "Sequence",
    "pretokenizers": [
      {
        "type": "ByteLevel",
        "add_prefix_space": false,
        "trim_offsets": true,
        "use_regex": true
      },
      {
        "type": "Digits",
        "individual_digits": true
      },
      {
        "type": "Punctuation",
        "behavior": "Isolated"
      }
    ]
  },
  "post_processor": {
    "type": "TemplateProcessing",
    "single": [
      {
        "SpecialToken": {
          "id": "<[EOS]>",
          "type_id": 0
        }
      },
      {
        "Sequence": {
          "id": "A",
          "type_id": 0
        }
      },
      {
        "SpecialToken": {
          "id": "<[EOS]>",
          "type_id": 0
        }
      }
    ],
    "pair": [
      {
        "Sequence": {
          "id": "A",
          "type_id": 0
        }
      },
      {
        "Sequence": {
          "id": "B",
          "type_id": 1
        }
      }
    ],
    "special_tokens": {
      "<[EOS]>": {
        "id": "<[EOS]>",
        "ids": [
          0
        ],
        "tokens": [
          "<[EOS]>"
        ]
      }
    }
  },
  "decoder": {
    "type": "ByteLevel",
    "add_prefix_space": true,
    "trim_offsets": true,
    "use_regex": true
  },
  "model": {
    "type": "BPE",
    "dropout": null,
    "unk_token": null,
    "continuing_subword_prefix": null,
    "end_of_word_suffix": null,
    "fuse_unk": false,
    "byte_fallback": false,
    "vocab": {
      "<[EOS]>": 0,
      "!": 1,
      "\"": 2,
      "'": 3,
      "(": 4,
      ")": 5,
      ",": 6,
      "-": 7,
      ".": 8,
      "0": 9,
      "1": 10,
      "2": 11,
      "3": 12,
      "4": 13,
      "5": 14,
      "6": 15,
      "7": 16,
      "8": 17,
      "9": 18,
      ":": 19,
      "=": 20,
      "?": 21,
      "A": 22,
      "B": 23,
      "C": 24,
      "D": 25,
      "E": 26,
      "F": 27,
      "G": 28,
      "H": 29,
      "I": 30,
      "J": 31,
      "K": 32,
      "L": 33,
      "M": 34,
      "N": 35,
      "O": 36,
      "P": 37,
      "Q": 38,
      "R": 39,
      "S": 40,
      "T": 41,
      "U": 42,
      "V": 43,
      "W": 44,
      "X": 45,
      "Y": 46,
      "Z": 47,
      "_": 48,
      "a": 49,
      "b": 50,
      "c": 51,
      "d": 52,
      "e": 53,
      "f": 54,
      "g": 55,
      "h": 56,
      "i": 57,
      "j": 58,
      "k": 59,
      "l": 60,
      "m": 61,
      "n": 62,
      "o": 63,
      "p": 64,
      "q": 65,
      "r": 66,
      "s": 67,
      "t": 68,
      "u": 69,
      "v": 70,
      "w": 71,
      "x": 72,
      "y": 73,
      "z": 74,
      "¤": 75,
      "¶": 76,
      "¼": 77,
      "Â": 78,
      "Ã": 79,
      "ĉ": 80,
      "Ċ": 81,
      "Ġ": 82,
      "Ħ": 83,
      "ĸ": 84,
      "ľ": 85,
      "Ł": 86,
      "ł": 87,
      "en": 88,
      "er": 89,
      "in": 90,
      "Ġt": 91,
      "ch": 92,
      "Ġd": 93,
      "Ġa": 94,
      "on": 95,
      "es": 96,
      "Ġth": 97,
      "is": 98,
      "Ġw": 99,
      "un": 100,
      "it": 101,
      "Ġs": 102,
      "at": 103,
      "ie": 104,
      "or": 105,
      "Ġthe": 106,
      "an": 107,
      "re": 108,
      "ich": 109,
      "Ġb": 110,
      "Ġm": 111,
      "ion": 112,
      "Ġo": 113,
      "Ġin": 114,
      "ar": 115,
      "Ġf": 116,
      "al": 117,
      "as": 118,
      "Ġh": 119,
      "ur": 120,
      "te": 121,
      "Ġe": 122,
      "le": 123,
      "Ġn": 124,
      "Ġp": 125,
      "Ġan": 126,
      "Ġc": 127,
      "us": 128,
      "ent": 129,
      "ge": 130,
      "Ġun": 131,
      "Ġto": 132,
      "Ġof": 133,
      "Ã¤": 134,
      "ung": 135,
      "om": 136,
      "Ġdie": 137,
      "ll": 138,
      "Ġv": 139,
      "ing": 140,
      "Ġder": 141,
      "Ġbe": 142,
      "Ġis": 143,
      "ĠE": 144,
      "Ġand": 145,
      "ir": 146,
      "ed": 147,
      "ro": 148,
      "ĠS": 149,
      "st": 150,
      "Ġund": 151,
      "ig": 152,
      "Ġg": 153,
      "Ġz": 154,
      "ĠA": 155,
      "Ġein": 156,
      "im": 157,
      "ic": 158,
      "em": 159,
      "ra": 160,
      "ut": 161,
      "ĠM": 162,
      "ĠP": 163,
      "el": 164,
      "op": 165,
      "ter": 166,
      "eit": 167,
      "ĠB": 168,
      "icht": 169,
      "ol": 170,
      "ies": 171,
      "id": 172,
      "am": 173,
      "Ġre": 174,
      "ĠI": 175,
      "ation": 176,
      "ten": 177,
      "sch": 178,
      "il": 179,
      "ul": 180,
      "et": 181,
      "ber": 182,
      "ve": 183,
      "der": 184,
      "hr": 185,
      "Ġl": 186,
      "Ġk": 187,
      "den": 188,
      "Ġthat": 189,
      "um": 190,
      "omm": 191,
      "ct": 192,
      "Ġdas": 193,
      "ĠK": 194,
      "ein": 195,
      "uf": 196,
      "lich": 197,
      "ab": 198,
      "gen": 199,
      "ot": 200,
      "ĠF": 201,
      "ĠR": 202,
      "ĠG": 203,
      "isch": 204,
      "Th": 205,
      "Ġfor": 206,
      "Ġzu": 207,
      "ere": 208,
      "ÃŁ": 209,
      "Ġden": 210,
      "Ġon": 211,
      "ĠV": 212,
      "urop": 213,
      "Ġwir": 214,
      "ĠC": 215,
      "Ġwh": 216,
      "Ġge": 217,
      "ly": 218,
      "ier": 219,
      "de": 220,
      "res": 221,
      "os": 222,
      "iss": 223,
      "Ġwe": 224,
      "ĠH": 225,
      "Ġal": 226,
      "ow": 227,
      "ort": 228,
      "ĠEurop": 229,
      "uch": 230,
      "Ġist": 231,
      "ĠW": 232,
      "and": 233,
      "Ġim": 234,
      "ĠU": 235,
      "ĠD": 236,
      "ver": 237,
      "Ġver": 238,
      "ĠfÃ": 239,
      "ach": 240,
      "Ġpro": 241,
      "ce": 242,
      "tr": 243,
      "Ġdies": 244,
      "Ġit": 245,
      "ff": 246,
      "Ġer": 247,
      "est": 248,
      "Ġy": 249,
      "Ġso": 250,
      "Ġcon": 251,
      "Ġvon": 252,
      "ĠL": 253,
      "ill": 254,
      "Ġha": 255,
      "ess": 256,
      "ou": 257,
      "Ġauf": 258,
      "Ġnicht": 259,
      "Ġthis": 260,
      "kt": 261,
      "ĠT": 262,
      "ith": 263,
      "Ġare": 264,
      "men": 265,
      "ay": 266,
      "Ġne": 267,
      "Ġas": 268,
      "ĠÃ": 269,
      "ft": 270,
      "ĠVer": 271,
      "Ġwith": 272,
      "ke": 273,
      "ommiss": 274,
      "Ġdes": 275,
      "pp": 276,
      "Ġst": 277,
      "ind": 278,
      "Ġnot": 279,
      "ment": 280,
      "The": 281,
      "her": 282,
      "ischen": 283,
      "Ġde": 284,
      "uld": 285,
      "Ġse": 286,
      "ĠUn": 287,
      "ht": 288,
      "Ġdass": 289,
      "Ġhave": 290,
      "ould": 291,
      "ate": 292,
      "ungen": 293,
      "ommission": 294,
      "Ġwer": 295,
      "ck": 296,
      "Ġj": 297,
      "ĠZ": 298,
      "Ġmit": 299,
      "iv": 300,
      "la": 301,
      "Ġals": 302,
      "Ġeine": 303,
      "Ġes": 304,
      "ant": 305,
      "end": 306,
      "sp": 307,
      "Ġda": 308,
      "Ġdem": 309,
      "ust": 310,
      "if": 311,
      "Ġich": 312,
      "ib": 313,
      "ann": 314,
      "ĠEurope": 315,
      "ĠN": 316,
      "Ġwerden": 317,
      "ive": 318,
      "Ġr": 319,
      "ĠSt": 320,
      "nen": 321,
      "for": 322,
      "Ġle": 323,
      "Ġall": 324,
      "Ã¤n": 325,
      "ident": 326,
      "ity": 327,
      "Ġsh": 328,
      "Ġme": 329,
      "ial": 330,
      "ens": 331,
      "ad": 332,
      "Ġwill": 333,
      "our": 334,
      "ah": 335,
      "lie": 336,
      "Ġex": 337,
      "Ġyou": 338,
      "Ġhab": 339,
      "ne": 340,
      "oun": 341,
      "ĠRe": 342,
      "ste": 343,
      "qu": 344,
      "art": 345,
      "Ġab": 346,
      "ĠmÃ": 347,
      "Ġsich": 348,
      "sen": 349,
      "we": 350,
      "Ġuns": 351,
      "ist": 352,
      "aus": 353,
      "och": 354,
      "ament": 355,
      "Ġwhich": 356,
      "hen": 357,
      "und": 358,
      "Ġwas": 359,
      "Ġauch": 360,
      "Ich": 361,
      "ĠIn": 362,
      "arl": 363,
      "ug": 364,
      "igen": 365,
      "ĠJ": 366,
      "ik": 367,
      "ĠAn": 368,
      "ain": 369,
      "ted": 370,
      "iel": 371,
      "err": 372,
      "ers": 373,
      "ĠEuropean": 374,
      "ien": 375,
      "ag": 376,
      "Ġby": 377,
      "ben": 378,
      "Ġvor": 379,
      "uss": 380,
      "all": 381,
      "ure": 382,
      "Ġhas": 383,
      "Ġat": 384,
      "ungs": 385,
      "ions": 386,
      "Ġres": 387,
      "port": 388,
      "hal": 389,
      "pe": 390,
      "rom": 391,
      "Ġi": 392,
      "Die": 393,
      "Ġaus": 394,
      "scha": 395,
      "ub": 396,
      "Ġum": 397,
      "Ġsch": 398,
      "Ġwird": 399,
      "up": 400,
      "ern": 401,
      "Ġhat": 402,
      "od": 403,
      "Ġor": 404,
      "Ġsind": 405,
      "ĠParl": 406,
      "ze": 407,
      "ĠUnion": 408,
      "Ġhaben": 409,
      "rÃ¤": 410,
      "ts": 411,
      "Ġdo": 412,
      "ahr": 413,
      "Ġhe": 414,
      "Ġcom": 415,
      "Ġwie": 416,
      "etz": 417,
      "ĠEn": 418,
      "Ġsie": 419,
      "enn": 420,
      "ische": 421,
      "ĠSch": 422,
      "ight": 423,
      "esch": 424,
      "Ġwor": 425,
      "In": 426,
      "schaft": 427,
      "olit": 428,
      "heit": 429,
      "ĠBe": 430,
      "me": 431,
      "ak": 432,
      "ĠCommission": 433,
      "llen": 434,
      "ard": 435,
      "tz": 436,
      "ue": 437,
      "fÃ": 438,
      "ĠSie": 439,
      "Ġalso": 440,
      "ran": 441,
      "ĠAr": 442,
      "Ġsein": 443,
      "rÃ": 444,
      "Ġag": 445,
      "se": 446,
      "We": 447,
      "ĠPro": 448,
      "ember": 449,
      "ise": 450,
      "beit": 451,
      "itte": 452,
      "th": 453,
      "tern": 454,
      "ĠEU": 455,
      "ĠO": 456,
      "ese": 457,
      "Ġam": 458,
      "ige": 459,
      "Ġus": 460,
      "ang": 461,
      "Ġzur": 462,
      "Ġfrom": 463,
      "du": 464,
      "keit": 465,
      "age": 466,
      "Ġent": 467,
      "Ġthere": 468,
      "ous": 469,
      "be": 470,
      "Ġen": 471,
      "ĠFra": 472,
      "ĠEuropÃ¤": 473,
      "ĠEr": 474,
      "aten": 475,
      "ĠkÃ": 476,
      "ud": 477,
      "ates": 478,
      "chte": 479,
      "Ġman": 480,
      "Ġwould": 481,
      "ore": 482,
      "eren": 483,
      "ip": 484,
      "ations": 485,
      "iz": 486,
      "ĠAus": 487,
      "ational": 488,
      "ert": 489,
      "Ġma": 490,
      "ther": 491,
      "out": 492,
      "Ġgo": 493,
      "Ġdar": 494,
      "Ã¤t": 495,
      "ĠKommission": 496,
      "Ġour": 497,
      "ect": 498,
      "urch": 499,
      "ome": 500,
      "Ġcan": 501,
      "Ġch": 502,
      "ok": 503,
      "Ġshould": 504,
      "ick": 505,
      "rÃ¤s": 506,
      "It": 507,
      "Ã¤r": 508,
      "ĠBer": 509,
      "lichen": 510,
      "mer": 511,
      "og": 512,
      "dern": 513,
      "Ġreg": 514,
      "ast": 515,
      "Wir": 516,
      "ult": 517,
      "able": 518,
      "ord": 519,
      "Ġpart": 520,
      "ĠPres": 521,
      "Ġunter": 522,
      "ire": 523,
      "rit": 524,
      "Ġad": 525,
      "rÃ¤sident": 526,
      "cht": 527,
      "ĠdaÃŁ": 528,
      "ĠVor": 529,
      "ommen": 530,
      "ost": 531,
      "tw": 532,
      "he": 533,
      "ute": 534,
      "Ġmust": 535,
      "Ġnach": 536,
      "ical": 537,
      "Ġfa": 538,
      "Ġbut": 539,
      "Ġbeen": 540,
      "ri": 541,
      "ass": 542,
      "ms": 543,
      "cc": 544,
      "uÃŁ": 545,
      "Ġeiner": 546,
      "ction": 547,
      "hl": 548,
      "ine": 549,
      "ble": 550,
      "eine": 551,
      "ition": 552,
      "ank": 553,
      "Ġwar": 554,
      "Ġcomp": 555,
      "ĠGe": 556,
      "Ġeinen": 557,
      "Das": 558,
      "Ġih": 559,
      "anz": 560,
      "oc": 561,
      "Ġdiese": 562,
      "oll": 563,
      "ĠAb": 564,
      "Ġli": 565,
      "form": 566,
      "ap": 567,
      "ieren": 568,
      "ger": 569,
      "ish": 570,
      "Ġsa": 571,
      "con": 572,
      "Ġbet": 573,
      "Ġbei": 574,
      "ssen": 575,
      "ĠMit": 576,
      "chen": 577,
      "ĠPresident": 578,
      "lo": 579,
      "Ġapp": 580,
      "reat": 581,
      "ĠPrÃ¤sident": 582,
      "ary": 583,
      "vel": 584,
      "imm": 585,
      "Ġsu": 586,
      "ear": 587,
      "Ġcoun": 588,
      "ĠMr": 589,
      "Ġqu": 590,
      "ime": 591,
      "Ġsoll": 592,
      "Ġste": 593,
      "gt": 594,
      "cial": 595,
      "Ġits": 596,
      "ose": 597,
      "This": 598,
      "liche": 599,
      "Ġwur": 600,
      "iament": 601,
      "Es": 602,
      "ĠHerr": 603,
      "Ġgro": 604,
      "glie": 605,
      "ĠParlament": 606,
      "ia": 607,
      "Ġnoch": 608,
      "mp": 609,
      "ru": 610,
      "Ġmore": 611,
      "elt": 612,
      "ution": 613,
      "Ġdurch": 614,
      "ĠMember": 615,
      "Ġkann": 616,
      "Ġdieser": 617,
      "Ġneed": 618,
      "Ġdis": 619,
      "ance": 620,
      "Ġgen": 621,
      "Ġcomm": 622,
      "Ġlike": 623,
      "rat": 624,
      "ide": 625,
      "sta": 626,
      "Ġcountr": 627,
      "rag": 628,
      "Ġsp": 629,
      "nnen": 630,
      "ĠEin": 631,
      "ren": 632,
      "iert": 633,
      "Ġpos": 634,
      "ress": 635,
      "one": 636,
      "ally": 637,
      "pt": 638,
      "Ġmy": 639,
      "Ġfin": 640,
      "olle": 641,
      "Ġob": 642,
      "Ġte": 643,
      "ark": 644,
      "Ġalle": 645,
      "fen": 646,
      "zu": 647,
      "are": 648,
      "Ġnur": 649,
      "ĠMitglie": 650,
      "Ġout": 651,
      "Ġstr": 652,
      "Ġimp": 653,
      "Ġright": 654,
      "Ġoder": 655,
      "ice": 656,
      "Ġtheir": 657,
      "Ġreport": 658,
      "Ġwork": 659,
      "Ġbes": 660,
      "ierung": 661,
      "Ġprop": 662,
      "cil": 663,
      "ges": 664,
      "Ġone": 665,
      "Ġinc": 666,
      "Ġaber": 667,
      "ong": 668,
      "ign": 669,
      "ĠEuropÃ¤ischen": 670,
      "Ġpolit": 671,
      "Ġwho": 672,
      "ame": 673,
      "oin": 674,
      "Ġthey": 675,
      "ĠParliament": 676,
      "au": 677,
      "Ġzum": 678,
      "iff": 679,
      "Ġvery": 680,
      "ely": 681,
      "Ġcont": 682,
      "Ġpe": 683,
      "Ġup": 684,
      "nah": 685,
      "rie": 686,
      "Ġno": 687,
      "Ġwhat": 688,
      "schen": 689,
      "ement": 690,
      "hmen": 691,
      "Ġimport": 692,
      "ink": 693,
      "Ġabout": 694,
      "Ġihr": 695,
      "rund": 696,
      "erv": 697,
      "Ġwenn": 698,
      "Ġother": 699,
      "gan": 700,
      "fore": 701,
      "Ġspe": 702,
      "Ġta": 703,
      "ĠStates": 704,
      "wer": 705,
      "glich": 706,
      "ffen": 707,
      "yste": 708,
      "Ġdiesem": 709,
      "nd": 710,
      "Ġzw": 711,
      "igkeit": 712,
      "che": 713,
      "ĠMitglied": 714,
      "ov": 715,
      "Ġthese": 716,
      "Ġsupp": 717,
      "cy": 718,
      "Ġjed": 719,
      "ram": 720,
      "Ġber": 721,
      "Ġcons": 722,
      "Ġco": 723,
      "Ġint": 724,
      "Ġweit": 725,
      "Ġges": 726,
      "Ġbec": 727,
      "ase": 728,
      "Ġsehr": 729,
      "ons": 730,
      "Ġpre": 731,
      "ated": 732,
      "ĠCoun": 733,
      "ĠArbeit": 734,
      "Ġconc": 735,
      "Ġpol": 736,
      "ichtig": 737,
      "now": 738,
      "auf": 739,
      "etzt": 740,
      "Ġeff": 741,
      "ring": 742,
      "ĠBericht": 743,
      "ĠCouncil": 744,
      "ner": 745,
      "lic": 746,
      "ced": 747,
      "sten": 748,
      "Dies": 749,
      "ĠDe": 750,
      "Ġyour": 751,
      "ĠUnter": 752,
      "Ġtime": 753,
      "ause": 754,
      "Ã¤hr": 755,
      "ammen": 756,
      "ktion": 757,
      "Der": 758,
      "ack": 759,
      "ree": 760,
      "Ġtra": 761,
      "utz": 762,
      "leich": 763,
      "uropÃ¤": 764,
      "ĠLe": 765,
      "tschaft": 766,
      "Ġnew": 767,
      "Ġeinem": 768,
      "usammen": 769,
      "ĠReg": 770,
      "Ġpr": 771,
      "staaten": 772,
      "stit": 773,
      "iden": 774,
      "tet": 775,
      "Ġexp": 776,
      "ĠMa": 777,
      "stÃ": 778,
      "ĠMen": 779,
      "gram": 780,
      "Ġacc": 781,
      "Ġhier": 782,
      "assen": 783,
      "ahl": 784,
      "ople": 785,
      "Ġmehr": 786,
      "Ġinter": 787,
      "Ġgegen": 788,
      "land": 789,
      "ont": 790,
      "ject": 791,
      "ittel": 792,
      "wo": 793,
      "ĠJahr": 794,
      "los": 795,
      "Ġra": 796,
      "ces": 797,
      "olitik": 798,
      "ments": 799,
      "gel": 800,
      "Ġwo": 801,
      "Ġmein": 802,
      "ile": 803,
      "ible": 804,
      "Ġyear": 805,
      "Ġpropos": 806,
      "uen": 807,
      "ian": 808,
      "reich": 809,
      "lieÃŁ": 810,
      "ild": 811,
      "Ġknow": 812,
      "Ġany": 813,
      "ote": 814,
      "Ġwurde": 815,
      "Ġev": 816,
      "bar": 817,
      "ĠeuropÃ¤": 818,
      "Ġpolic": 819,
      "hÃ": 820,
      "Ġhin": 821,
      "ĠWe": 822,
      "ĠRat": 823,
      "teil": 824,
      "Ġnow": 825,
      "lin": 826,
      "hn": 827,
      "ious": 828,
      "ities": 829,
      "itÃ¤t": 830,
      "Ġif": 831,
      "Ġsol": 832,
      "ob": 833,
      "fer": 834,
      "geb": 835,
      "Ġintern": 836,
      "Ġpeople": 837,
      "Ġgem": 838,
      "fe": 839,
      "onder": 840,
      "chn": 841,
      "Ġind": 842,
      "Ġcountries": 843,
      "ĠAuf": 844,
      "ibt": 845,
      "Ġonly": 846,
      "Ġpl": 847,
      "velop": 848,
      "ative": 849,
      "Ġmuss": 850,
      "ever": 851,
      "itu": 852,
      "sche": 853,
      "ĠMitgliedstaaten": 854,
      "ings": 855,
      "Ġmich": 856,
      "Ġimportant": 857,
      "cess": 858,
      "alt": 859,
      "Ġdec": 860,
      "ĠTe": 861,
      "als": 862,
      "ss": 863,
      "fahr": 864,
      "Ġjust": 865,
      "fl": 866,
      "arbeit": 867,
      "Mr": 868,
      "Ġop": 869,
      "erg": 870,
      "ention": 871,
      "Ġar": 872,
      "ange": 873,
      "Ġhabe": 874,
      "xt": 875,
      "ĠMenschen": 876,
      "Ġfe": 877,
      "ĠCh": 878,
      "Ġagain": 879,
      "ider": 880,
      "You": 881,
      "iven": 882,
      "Ġihre": 883,
      "Ġgew": 884,
      "conom": 885,
      "ite": 886,
      "Ġsome": 887,
      "sam": 888,
      "Ġro": 889,
      "Wh": 890,
      "Ġher": 891,
      "Ġper": 892,
      "Ġbeg": 893,
      "Ġtran": 894,
      "atter": 895,
      "Ġleg": 896,
      "Ã¤nd": 897,
      "amp": 898,
      "Ġact": 899,
      "ism": 900,
      "irst": 901,
      "Ġdieses": 902,
      "Ġunser": 903,
      "ken": 904,
      "Ġdevelop": 905,
      "Ġvie": 906,
      "halten": 907,
      "ors": 908,
      "llt": 909,
      "Ġrec": 910,
      "Ġhow": 911,
      "ĠSe": 912,
      "ular": 913,
      "Ġdu": 914,
      "ĠComm": 915,
      "lear": 916,
      "Ġsupport": 917,
      "Ġviel": 918,
      "Ġtake": 919,
      "ĠEnt": 920,
      "Ġpartic": 921,
      "Ġunder": 922,
      "ility": 923,
      "kommen": 924,
      "wend": 925,
      "Ġget": 926,
      "Ġiss": 927,
      "Sie": 928,
      "Herr": 929,
      "ents": 930,
      "ateg": 931,
      "ans": 932,
      "blem": 933,
      "icher": 934,
      "ĠBÃ": 935,
      "Ġsuch": 936,
      "ld": 937,
      "ĠTh": 938,
      "Ġthem": 939,
      "ĠVorsch": 940,
      "Ġprov": 941,
      "Ġinto": 942,
      "lung": 943,
      "ures": 944,
      "hand": 945,
      "Ġwere": 946,
      "Ġsay": 947,
      "acht": 948,
      "Ã¤nder": 949,
      "halb": 950,
      "ĠIh": 951,
      "Ġprodu": 952,
      "Ġbecause": 953,
      "Ġsub": 954,
      "Ġmake": 955,
      "ystem": 956,
      "Ġpolicy": 957,
      "ha": 958,
      "wir": 959,
      "lar": 960,
      "Ġins": 961,
      "ĠwÃ": 962,
      "ituation": 963,
      "lÃ¤": 964,
      "Ġnational": 965,
      "Ġinv": 966,
      "ĠZeit": 967,
      "ĠWir": 968,
      "ific": 969,
      "Ġmir": 970,
      "Ġdire": 971,
      "Ġdam": 972,
      "rauch": 973,
      "ĠEntw": 974,
      "sicht": 975,
      "ied": 976,
      "Ġway": 977,
      "atz": 978,
      "Ġeconom": 979,
      "rei": 980,
      "Ġwel": 981,
      "oint": 982,
      "ĠSp": 983,
      "ater": 984,
      "day": 985,
      "Ġrel": 986,
      "fol": 987,
      "Ġwhen": 988,
      "lle": 989,
      "Ġdiff": 990,
      "formation": 991,
      "Ġtr": 992,
      "Ġthink": 993,
      "igt": 994,
      "nehmen": 995,
      "isten": 996,
      "ľber": 997,
      "Ġinternational": 998,
      "issen": 999,
      "Ġhere": 1000,
      "Ġbereit": 1001,
      "hren": 1002,
      "ĠEuropÃ¤ische": 1003,
      "ĠEuropa": 1004,
      "olog": 1005,
      "nder": 1006,
      "very": 1007,
      "Ã¤ch": 1008,
      "ĠÃĦ": 1009,
      "ds": 1010,
      "Ġkeine": 1011,
      "halt": 1012,
      "Ġover": 1013,
      "Ġgibt": 1014,
      "ual": 1015,
      "iÃŁ": 1016,
      "ween": 1017,
      "ĠGrund": 1018,
      "nahmen": 1019,
      "Ġwant": 1020,
      "Ġmark": 1021,
      "ues": 1022,
      "ĠVerb": 1023,
      "uman": 1024,
      "Ġsee": 1025,
      "Ġbetween": 1026,
      "essen": 1027,
      "legen": 1028,
      "Ġsow": 1029,
      "tre": 1030,
      "Ġthose": 1031,
      "kte": 1032,
      "ĠZusammen": 1033,
      "inn": 1034,
      "Ġbin": 1035,
      "pect": 1036,
      "ards": 1037,
      "ives": 1038,
      "Ġdiesen": 1039,
      "ĠEntwick": 1040,
      "That": 1041,
      "lag": 1042,
      "ustr": 1043,
      "ĠgroÃŁ": 1044,
      "achen": 1045,
      "Ġbis": 1046,
      "ient": 1047,
      "Ġbest": 1048,
      "Ġbelie": 1049,
      "fr": 1050,
      "led": 1051,
      "Ġhel": 1052,
      "oug": 1053,
      "itt": 1054,
      "ĠArt": 1055,
      "mal": 1056,
      "Ġpres": 1057,
      "eth": 1058,
      "ĠFor": 1059,
      "unity": 1060,
      "ĠUm": 1061,
      "nung": 1062,
      "Ġconcern": 1063,
      "Ġfirst": 1064,
      "ĠGes": 1065,
      "zeit": 1066,
      "Ġtak": 1067,
      "zie": 1068,
      "ĠMaÃŁ": 1069,
      "abe": 1070,
      "ĠLand": 1071,
      "inis": 1072,
      "Ġagre": 1073,
      "Ġdeb": 1074,
      "Ġeines": 1075,
      "Ġfact": 1076,
      "igh": 1077,
      "Ġparticular": 1078,
      "ĠÃľber": 1079,
      "zial": 1080,
      "eration": 1081,
      "Ġla": 1082,
      "Ġmade": 1083,
      "Ġlo": 1084,
      "ĠBed": 1085,
      "schlieÃŁ": 1086,
      "Ġquest": 1087,
      "Ġthan": 1088,
      "iger": 1089,
      "chts": 1090,
      "bst": 1091,
      "unkt": 1092,
      "Ġbas": 1093,
      "itz": 1094,
      "wor": 1095,
      "lÃ": 1096,
      "igung": 1097,
      "Ġtherefore": 1098,
      "Ġwichtig": 1099,
      "leg": 1100,
      "act": 1101,
      "rger": 1102,
      "Ġass": 1103,
      "Ġgood": 1104,
      "pro": 1105,
      "Ġzwischen": 1106,
      "vern": 1107,
      "innen": 1108,
      "get": 1109,
      "There": 1110,
      "mend": 1111,
      "str": 1112,
      "Ġclear": 1113,
      "forder": 1114,
      "Ġbeing": 1115,
      "Ġmarket": 1116,
      "Ġend": 1117,
      "wn": 1118,
      "ett": 1119,
      "Ġrem": 1120,
      "Ġunsere": 1121,
      "ĠHaus": 1122,
      "Ġappro": 1123,
      "ĠKolle": 1124,
      "ision": 1125,
      "stitution": 1126,
      "Ġkon": 1127,
      "ugh": 1128,
      "Ġposs": 1129,
      "Ġkein": 1130,
      "Ġhad": 1131,
      "Ġgreat": 1132,
      "Ġdamit": 1133,
      "Ġdann": 1134,
      "hin": 1135,
      "isation": 1136,
      "ats": 1137,
      "Ġweiter": 1138,
      "off": 1139,
      "Ã¤l": 1140,
      "ating": 1141,
      "trag": 1142,
      "Ġhuman": 1143,
      "els": 1144,
      "Ġhand": 1145,
      "rt": 1146,
      "Ġoff": 1147,
      "Ġfre": 1148,
      "Ġson": 1149,
      "icherheit": 1150,
      "Ġemp": 1151,
      "Ġimmer": 1152,
      "nis": 1153,
      "Ġdisc": 1154,
      "ural": 1155,
      "ĠÃĦnder": 1156,
      "erm": 1157,
      "Ġresp": 1158,
      "uÃŁer": 1159,
      "Ġrequ": 1160,
      "fin": 1161,
      "Er": 1162,
      "Ġhis": 1163,
      "Ġpolitical": 1164,
      "ull": 1165,
      "Ġlie": 1166,
      "gend": 1167,
      "vor": 1168,
      "entr": 1169,
      "Ġgemein": 1170,
      "arm": 1171,
      "Ġmany": 1172,
      "ĠFrage": 1173,
      "enden": 1174,
      "vers": 1175,
      "Ġsel": 1176,
      "ved": 1177,
      "Ġrep": 1178,
      "Ġcur": 1179,
      "stand": 1180,
      "ublic": 1181,
      "Ġadd": 1182,
      "uer": 1183,
      "lan": 1184,
      "oth": 1185,
      "Ġstat": 1186,
      "Ġbelieve": 1187,
      "rechen": 1188,
      "kl": 1189,
      "How": 1190,
      "Ġjedoch": 1191,
      "ĠSte": 1192,
      "ently": 1193,
      "ene": 1194,
      "Ġwell": 1195,
      "Ġrights": 1196,
      "Ġsollte": 1197,
      "omp": 1198,
      "Ġwieder": 1199,
      "ĠeuropÃ¤ischen": 1200,
      "Ġgesch": 1201,
      "Ġeinz": 1202,
      "Ġanderen": 1203,
      "Ã¤ndern": 1204,
      "ĠGem": 1205,
      "ĠKon": 1206,
      "Ġsollten": 1207,
      "ail": 1208,
      "ĠFrau": 1209,
      "Ġevery": 1210,
      "Ġyears": 1211,
      "les": 1212,
      "ĠMar": 1213,
      "ory": 1214,
      "iti": 1215,
      "Ġtwo": 1216,
      "Ġcould": 1217,
      "dem": 1218,
      "Ġheute": 1219,
      "Ġpla": 1220,
      "Ġganz": 1221,
      "way": 1222,
      "ady": 1223,
      "ĠBere": 1224,
      "ĠStr": 1225,
      "ty": 1226,
      "erson": 1227,
      "weise": 1228,
      "Ġbeste": 1229,
      "He": 1230,
      "ittee": 1231,
      "ragen": 1232,
      "ac": 1233,
      "gr": 1234,
      "Ġger": 1235,
      "icult": 1236,
      "Ġjetzt": 1237,
      "Ġdoes": 1238,
      "Be": 1239,
      "Ġfund": 1240,
      "Ġmeine": 1241,
      "red": 1242,
      "Ġwhere": 1243,
      "chten": 1244,
      "own": 1245,
      "Ġnat": 1246,
      "trÃ¤": 1247,
      "ctive": 1248,
      "Ġeven": 1249,
      "Ġvom": 1250,
      "rde": 1251,
      "lement": 1252,
      "Ġcour": 1253,
      "ionen": 1254,
      "cept": 1255,
      "Ġagreement": 1256,
      "Ġagainst": 1257,
      "Ġac": 1258,
      "ĠGemein": 1259,
      "ks": 1260,
      "Ġuse": 1261,
      "ĠBereich": 1262,
      "isse": 1263,
      "Ġgu": 1264,
      "Ġmeas": 1265,
      "Ġbring": 1266,
      "Ġgut": 1267,
      "ĠIch": 1268,
      "ices": 1269,
      "Ġeconomic": 1270,
      "ope": 1271,
      "Ġdenn": 1272,
      "Ġincl": 1273,
      "ict": 1274,
      "Ġetw": 1275,
      "ale": 1276,
      "ischer": 1277,
      "ris": 1278,
      "cted": 1279,
      "uth": 1280,
      "Ġprote": 1281,
      "fall": 1282,
      "ument": 1283,
      "Ġange": 1284,
      "hne": 1285,
      "ited": 1286,
      "Ġfest": 1287,
      "laub": 1288,
      "Ġthro": 1289,
      "ls": 1290,
      "Ġpoint": 1291,
      "Wenn": 1292,
      "Ġgeht": 1293,
      "ĠunterstÃ": 1294,
      "ough": 1295,
      "entlich": 1296,
      "tzen": 1297,
      "eln": 1298,
      "Ġview": 1299,
      "Ġwurden": 1300,
      "ĠMaÃŁnahmen": 1301,
      "richt": 1302,
      "ry": 1303,
      "Ġeffect": 1304,
      "immt": 1305,
      "Ġzwe": 1306,
      "ertain": 1307,
      "eschÃ¤": 1308,
      "hrt": 1309,
      "As": 1310,
      "ĠSta": 1311,
      "geben": 1312,
      "Ġtoo": 1313,
      "Ġorder": 1314,
      "erung": 1315,
      "Ġverb": 1316,
      "Ġreal": 1317,
      "amen": 1318,
      "Ġsame": 1319,
      "ĠFin": 1320,
      "nn": 1321,
      "Ġbereits": 1322,
      "orte": 1323,
      "Ġmost": 1324,
      "ĠKommiss": 1325,
      "Ġopp": 1326,
      "Ġmuch": 1327,
      "ĠRicht": 1328,
      "Ġsocial": 1329,
      "Ġmon": 1330,
      "stell": 1331,
      "Ã¤re": 1332,
      "Ġsaid": 1333,
      "What": 1334,
      "So": 1335,
      "schie": 1336,
      "Ġdebate": 1337,
      "raft": 1338,
      "unden": 1339,
      "itiz": 1340,
      "weit": 1341,
      "ful": 1342,
      "such": 1343,
      "Ġquestion": 1344,
      "ving": 1345,
      "feren": 1346,
      "fter": 1347,
      "Ġsagen": 1348,
      "Ġsondern": 1349,
      "Ġcurr": 1350,
      "Da": 1351,
      "Ġissue": 1352,
      "ĠIhnen": 1353,
      "Ġcl": 1354,
      "mittel": 1355,
      "Ġfinan": 1356,
      "Ġstill": 1357,
      "Ġfind": 1358,
      "ĠKommissar": 1359,
      "Ġsc": 1360,
      "Ġthrough": 1361,
      "An": 1362,
      "ĠMe": 1363,
      "Ġtransp": 1364,
      "Ġproposal": 1365,
      "ritt": 1366,
      "fahren": 1367,
      "Ġserv": 1368,
      "Ġcann": 1369,
      "Ġcontin": 1370,
      "io": 1371,
      "ekt": 1372,
      "umber": 1373,
      "Was": 1374,
      "iron": 1375,
      "ĠCommissioner": 1376,
      "Ġpossible": 1377,
      "ĠEntwicklung": 1378,
      "Ein": 1379,
      "zen": 1380,
      "uture": 1381,
      "Ġtechn": 1382,
      "Ġcannot": 1383,
      "Ġmay": 1384,
      "Un": 1385,
      "ouse": 1386,
      "Ġcitiz": 1387,
      "isp": 1388,
      "uro": 1389,
      "Ġwirk": 1390,
      "Und": 1391,
      "Ġsowie": 1392,
      "Ġschon": 1393,
      "Ġdevelopment": 1394,
      "ph": 1395,
      "etzen": 1396,
      "Ġfuture": 1397,
      "lish": 1398,
      "ulation": 1399,
      "Ġsystem": 1400,
      "Ġens": 1401,
      "satz": 1402,
      "Ġlevel": 1403,
      "Ġamend": 1404,
      "Ġincre": 1405,
      "Ġatt": 1406,
      "zÃ": 1407,
      "rim": 1408,
      "isl": 1409,
      "If": 1410,
      "Ġdoch": 1411,
      "scheid": 1412,
      "ĠSicherheit": 1413,
      "bes": 1414,
      "Ġcountry": 1415,
      "Ġsituation": 1416,
      "Ġweil": 1417,
      "loy": 1418,
      "Ġput": 1419,
      "ster": 1420,
      "isk": 1421,
      "Ġele": 1422,
      "eschÃ¤ft": 1423,
      "alk": 1424,
      "Ġpublic": 1425,
      "Ġunserer": 1426,
      "nahme": 1427,
      "sel": 1428,
      "Ġconsider": 1429,
      "Ġsom": 1430,
      "Ġworld": 1431,
      "ĠdafÃ": 1432,
      "inister": 1433,
      "viron": 1434,
      "ĠHand": 1435,
      "mÃ": 1436,
      "Ġadop": 1437,
      "Ġthen": 1438,
      "Ġprogram": 1439,
      "Ġletz": 1440,
      "ised": 1441,
      "bens": 1442,
      "ĠInter": 1443,
      "ep": 1444,
      "vironment": 1445,
      "lagen": 1446,
      "Ġask": 1447,
      "Ġmatter": 1448,
      "agt": 1449,
      "ĠHerrn": 1450,
      "Ã¤lt": 1451,
      "okrat": 1452,
      "gesch": 1453,
      "ready": 1454,
      "Ġsicher": 1455,
      "ichter": 1456,
      "Ġcar": 1457,
      "ondere": 1458,
      "Ġregard": 1459,
      "isen": 1460,
      "inc": 1461,
      "Ġgleich": 1462,
      "Ġalready": 1463,
      "bal": 1464,
      "ĠVorschlag": 1465,
      "Ġtun": 1466,
      "Ġplace": 1467,
      "lemen": 1468,
      "Ġown": 1469,
      "ĠMÃ": 1470,
      "Ġneg": 1471,
      "Ġresol": 1472,
      "ĠÃĦnderungs": 1473,
      "Ġdid": 1474,
      "Ġdarauf": 1475,
      "ince": 1476,
      "ahmen": 1477,
      "Ġtoday": 1478,
      "Diese": 1479,
      "mit": 1480,
      "Ġmachen": 1481,
      "ĠAl": 1482,
      "Ġhelp": 1483,
      "Ġcertain": 1484,
      "ĠMittel": 1485,
      "eral": 1486,
      "ĠRechts": 1487,
      "Ġcitizens": 1488,
      "uring": 1489,
      "itions": 1490,
      "operation": 1491,
      "ood": 1492,
      "Ġprocess": 1493,
      "ĠThem": 1494,
      "ĠParlaments": 1495,
      "Ġmeasures": 1496,
      "ĠWirtschaft": 1497,
      "Ġselbst": 1498,
      "utions": 1499,
      "Ġsec": 1500,
      "ĠAussch": 1501,
      "ĠHer": 1502,
      "Ġdenen": 1503,
      "ium": 1504,
      "immung": 1505,
      "ĠHin": 1506,
      "ade": 1507,
      "ional": 1508,
      "ĠOr": 1509,
      "gehen": 1510,
      "zus": 1511,
      "Ġsign": 1512,
      "welt": 1513,
      "But": 1514,
      "ount": 1515,
      "Ġdazu": 1516,
      "ĠRahmen": 1517,
      "cond": 1518,
      "Ġpra": 1519,
      "Ġable": 1520,
      "udget": 1521,
      "Ġback": 1522,
      "Ġhal": 1523,
      "ollow": 1524,
      "Ġhim": 1525,
      "Ġcourse": 1526,
      "Ġboth": 1527,
      "Ġke": 1528,
      "Ġstand": 1529,
      "Ġwithin": 1530,
      "reit": 1531,
      "ĠZu": 1532,
      "Ġnumber": 1533,
      "Ġlook": 1534,
      "Wie": 1535,
      "Ġwhy": 1536,
      "Ġseine": 1537,
      "Ġser": 1538,
      "kehr": 1539,
      "tzung": 1540,
      "ĠGeb": 1541,
      "Ġorgan": 1542,
      "klÃ¤r": 1543,
      "chie": 1544,
      "Ġetwas": 1545,
      "Ġinformation": 1546,
      "However": 1547,
      "ĠFinanz": 1548,
      "fÃ¤": 1549,
      "Ġhope": 1550,
      "bs": 1551,
      "ibility": 1552,
      "etzung": 1553,
      "Ġvote": 1554,
      "ĠMon": 1555,
      "urther": 1556,
      "Ġwen": 1557,
      "ves": 1558,
      "stÃ¤nd": 1559,
      "hol": 1560,
      "Ġrespons": 1561,
      "Ġihrer": 1562,
      "Ġlegisl": 1563,
      "Ġlast": 1564,
      "aren": 1565,
      "Ġthank": 1566,
      "zeich": 1567,
      "ority": 1568,
      "ppen": 1569,
      "Âł": 1570,
      "ĠVerein": 1571,
      "glichkeit": 1572,
      "Ġneuen": 1573,
      "arge": 1574,
      "Im": 1575,
      "Ġwollen": 1576,
      "Ġwissen": 1577,
      "Ġarea": 1578,
      "Ġdiscuss": 1579,
      "ace": 1580,
      "urn": 1581,
      "Ġproblem": 1582,
      "Ġgroup": 1583,
      "omen": 1584,
      "ctor": 1585,
      "ordnung": 1586,
      "urs": 1587,
      "lage": 1588,
      "lossen": 1589,
      "kun": 1590,
      "ages": 1591,
      "amil": 1592,
      "wort": 1593,
      "Ġcase": 1594,
      "Ġbefore": 1595,
      "tens": 1596,
      "Ġmin": 1597,
      "ruck": 1598,
      "And": 1599,
      "ĠmuÃŁ": 1600,
      "Ġsim": 1601,
      "Ġreas": 1602,
      "ĠCommittee": 1603,
      "vernment": 1604,
      "ĠgrÃ": 1605,
      "zeug": 1606,
      "Ġachie": 1607,
      "vention": 1608,
      "pr": 1609,
      "ĠSo": 1610,
      "Ġenvironment": 1611,
      "Ġgest": 1612,
      "Ġconf": 1613,
      "ontro": 1614,
      "Ġfinancial": 1615,
      "Ġdemoc": 1616,
      "aking": 1617,
      "linie": 1618,
      "ĠEnerg": 1619,
      "schieden": 1620,
      "Ġandere": 1621,
      "ret": 1622,
      "rden": 1623,
      "Ġohne": 1624,
      "eld": 1625,
      "ĠHe": 1626,
      "fach": 1627,
      "ĠWelt": 1628,
      "Ġtaken": 1629,
      "Ġinterest": 1630,
      "alth": 1631,
      "aff": 1632,
      "ĠHa": 1633,
      "Ġmain": 1634,
      "Ġfollow": 1635,
      "air": 1636,
      "rlich": 1637,
      "All": 1638,
      "ĠThe": 1639,
      "ichterst": 1640,
      "Ġausge": 1641,
      "aben": 1642,
      "Ġlong": 1643,
      "Des": 1644,
      "Ġneue": 1645,
      "itive": 1646,
      "Ġcommon": 1647,
      "genommen": 1648,
      "gem": 1649,
      "ÃŁen": 1650,
      "ital": 1651,
      "lex": 1652,
      "ften": 1653,
      "other": 1654,
      "kunft": 1655,
      "ĠQ": 1656,
      "ĠTeil": 1657,
      "Ġcome": 1658,
      "ĠMein": 1659,
      "gest": 1660,
      "urity": 1661,
      "besondere": 1662,
      "ispiel": 1663,
      "Ġenerg": 1664,
      "erk": 1665,
      "reichen": 1666,
      "ys": 1667,
      "Ġzwei": 1668,
      "Ġshall": 1669,
      "fass": 1670,
      "hip": 1671,
      "ĠPolitik": 1672,
      "ander": 1673,
      "Ġexamp": 1674,
      "affen": 1675,
      "Ã¤ng": 1676,
      "ife": 1677,
      "trib": 1678,
      "ĠwÃ¤re": 1679,
      "Ġlaw": 1680,
      "For": 1681,
      "ĠProblem": 1682,
      "tra": 1683,
      "ĠZiel": 1684,
      "Ã¤ÃŁ": 1685,
      "Ġnecess": 1686,
      "Ġtrans": 1687,
      "Ġallen": 1688,
      "lobal": 1689,
      "Ġauth": 1690,
      "ĠGro": 1691,
      "Ġspec": 1692,
      "ĠGemeinschaft": 1693,
      "Ġprom": 1694,
      "ĠDem": 1695,
      "stellen": 1696,
      "ath": 1697,
      "Ġcall": 1698,
      "work": 1699,
      "tellt": 1700,
      "mar": 1701,
      "ĠJahren": 1702,
      "Ġbudget": 1703,
      "ĠNe": 1704,
      "blems": 1705,
      "Ġsozial": 1706,
      "pporte": 1707,
      "Ġgive": 1708,
      "nisse": 1709,
      "ĠIt": 1710,
      "Ġensure": 1711,
      "Ġimpro": 1712,
      "upt": 1713,
      "Ġerw": 1714,
      "ĠKollegen": 1715,
      "Ġinte": 1716,
      "ohl": 1717,
      "Ġav": 1718,
      "Ġinclud": 1719,
      "org": 1720,
      "antwort": 1721,
      "Ġeinige": 1722,
      "ĠzurÃ": 1723,
      "spra": 1724,
      "Ġwithout": 1725,
      "Ġcooperation": 1726,
      "Ġgoing": 1727,
      "rimin": 1728,
      "Ġnun": 1729,
      "Ġfra": 1730,
      "ential": 1731,
      "ikel": 1732,
      "ina": 1733,
      "Ġhigh": 1734,
      "zug": 1735,
      "Ġmeans": 1736,
      "ache": 1737,
      "ho": 1738,
      "eite": 1739,
      "On": 1740,
      "Ġrespect": 1741,
      "Ġdiffer": 1742,
      "lungen": 1743,
      "heiten": 1744,
      "itÃ¤": 1745,
      "incip": 1746,
      "Ġkomm": 1747,
      "gangen": 1748,
      "Ġfar": 1749,
      "lick": 1750,
      "ower": 1751,
      "Ġest": 1752,
      "licher": 1753,
      "Ġfull": 1754,
      "ĠLÃ": 1755,
      "ĠFÃ": 1756,
      "Ġstrateg": 1757,
      "orgen": 1758,
      "une": 1759,
      "Ġday": 1760,
      "ismus": 1761,
      "Ġset": 1762,
      "Ġbrauch": 1763,
      "Ġprincip": 1764,
      "ĠZusammenarbeit": 1765,
      "uct": 1766,
      "ĠRecht": 1767,
      "isierung": 1768,
      "Aber": 1769,
      "Ġgemeinsam": 1770,
      "ma": 1771,
      "Ġallem": 1772,
      "Ġdr": 1773,
      "ĠLÃ¤nder": 1774,
      "Ġrapporte": 1775,
      "Ġschw": 1776,
      "inder": 1777,
      "cing": 1778,
      "ound": 1779,
      "Ġinsbesondere": 1780,
      "Ġindustr": 1781,
      "ĠUnterstÃ": 1782,
      "Ġsm": 1783,
      "arte": 1784,
      "ĠNach": 1785,
      "Ġdown": 1786,
      "ĠInd": 1787,
      "Ġallow": 1788,
      "ality": 1789,
      "Ġproduct": 1790,
      "ĠCommunity": 1791,
      "come": 1792,
      "elle": 1793,
      "ichterstatter": 1794,
      "ĠProgram": 1795,
      "ĠUS": 1796,
      "ĠFre": 1797,
      "lim": 1798,
      "Ġenergy": 1799,
      "ĠUmwelt": 1800,
      "ĠUnternehmen": 1801,
      "schr": 1802,
      "ktor": 1803,
      "reaty": 1804,
      "punkt": 1805,
      "Ġdon": 1806,
      "Ġafter": 1807,
      "Ġcompet": 1808,
      "ove": 1809,
      "tzt": 1810,
      "anken": 1811,
      "Ġhowever": 1812,
      "ĠDie": 1813,
      "Ġobject": 1814,
      "orities": 1815,
      "Ġglaub": 1816,
      "any": 1817,
      "Ġgeb": 1818,
      "Ġexample": 1819,
      "ules": 1820,
      "ĠFall": 1821,
      "ately": 1822,
      "its": 1823,
      "gar": 1824,
      "Ġmaj": 1825,
      "ather": 1826,
      "tend": 1827,
      "Ġviele": 1828,
      "ether": 1829,
      "ven": 1830,
      "ward": 1831,
      "Ġref": 1832,
      "ĠCon": 1833,
      "Ġseit": 1834,
      "error": 1835,
      "Ġeinmal": 1836,
      "Mit": 1837,
      "ĠFe": 1838,
      "ĠArbeits": 1839,
      "Ġze": 1840,
      "Ġinvol": 1841,
      "ĠBeit": 1842,
      "eut": 1843,
      "Ġkommen": 1844,
      "Ġmeet": 1845,
      "ething": 1846,
      "Ġbess": 1847,
      "Fra": 1848,
      "Ã¤m": 1849,
      "stru": 1850,
      "fung": 1851,
      "Ġredu": 1852,
      "Ġaller": 1853,
      "Ġlang": 1854,
      "ler": 1855,
      "Ġaction": 1856,
      "rechte": 1857,
      "ĠKÃ": 1858,
      "Ġbed": 1859,
      "They": 1860,
      "Ġmed": 1861,
      "Ġchange": 1862,
      "ĠY": 1863,
      "offe": 1864,
      "Ġwirklich": 1865,
      "Ġmeiner": 1866,
      "vour": 1867,
      "ordin": 1868,
      "Ġnecessary": 1869,
      "ichte": 1870,
      "Ġaccess": 1871,
      "ĠIntern": 1872,
      "ond": 1873,
      "Ġwirtschaft": 1874,
      "walt": 1875,
      "erien": 1876,
      "Ġgef": 1877,
      "ence": 1878,
      "ichts": 1879,
      "ĠSchw": 1880,
      "ĠhÃ": 1881,
      "ling": 1882,
      "legt": 1883,
      "Ġklar": 1884,
      "ktur": 1885,
      "Ġproblems": 1886,
      "ĠProble": 1887,
      "Ġbro": 1888,
      "ilfe": 1889,
      "iben": 1890,
      "abei": 1891,
      "man": 1892,
      "Ġbesch": 1893,
      "Ġimplement": 1894,
      "urg": 1895,
      "iet": 1896,
      "Ġrequire": 1897,
      "Ġwish": 1898,
      "ĠVertrag": 1899,
      "ĠEntscheid": 1900,
      "Ġinvest": 1901,
      "ĠRuss": 1902,
      "Ġvo": 1903,
      "Ġprev": 1904,
      "grund": 1905,
      "old": 1906,
      "Ġja": 1907,
      "ability": 1908,
      "Ġvoll": 1909,
      "Ġform": 1910,
      "ĠHouse": 1911,
      "Ġdifferent": 1912,
      "bewer": 1913,
      "bat": 1914,
      "ĠIs": 1915,
      "ĠFl": 1916,
      "ienst": 1917,
      "Ġihn": 1918,
      "Ġsomething": 1919,
      "folg": 1920,
      "ines": 1921,
      "hrung": 1922,
      "entral": 1923,
      "Ġsince": 1924,
      "bt": 1925,
      "gress": 1926,
      "iele": 1927,
      "ĠProdu": 1928,
      "ically": 1929,
      "zahl": 1930,
      "wert": 1931,
      "Ġir": 1932,
      "Ġbek": 1933,
      "Ġeing": 1934,
      "Ġpresent": 1935,
      "ielen": 1936,
      "att": 1937,
      "ĠBerichterstatter": 1938,
      "ahre": 1939,
      "ased": 1940,
      "Ġprotection": 1941,
      "trÃ¤ge": 1942,
      "oti": 1943,
      "Ġfurther": 1944,
      "Ġplay": 1945,
      "ĠIhre": 1946,
      "Ġbetter": 1947,
      "Ġopport": 1948,
      "illion": 1949,
      "ivers": 1950,
      "Ġgeben": 1951,
      "esell": 1952,
      "Ġihren": 1953,
      "ĠPart": 1954,
      "ablish": 1955,
      "Ã¤hl": 1956,
      "Ġequ": 1957,
      "Ã¤mp": 1958,
      "ialog": 1959,
      "ende": 1960,
      "ĠnatÃ": 1961,
      "ided": 1962,
      "anden": 1963,
      "spro": 1964,
      "Ġdeut": 1965,
      "Ġbo": 1966,
      "Ġbede": 1967,
      "antrag": 1968,
      "Ġgiven": 1969,
      "Ġwicht": 1970,
      "Ġval": 1971,
      "ting": 1972,
      "ĠEuro": 1973,
      "hang": 1974,
      "rder": 1975,
      "von": 1976,
      "Ġzusammen": 1977,
      "lungs": 1978,
      "osten": 1979,
      "falls": 1980,
      "Ġdone": 1981,
      "ĠThema": 1982,
      "Ġbesonder": 1983,
      "Ġlegal": 1984,
      "ierte": 1985,
      "Ġareas": 1986,
      "cks": 1987,
      "hungen": 1988,
      "ĠdarÃ": 1989,
      "Ġreally": 1990,
      "adies": 1991,
      "ettbewer": 1992,
      "ĠhÃ¤t": 1993,
      "Ġentsp": 1994,
      "ĠBet": 1995,
      "Ġgent": 1996,
      "immen": 1997,
      "luss": 1998,
      "Ġposition": 1999,
      "igten": 2000,
      "Ġissues": 2001,
      "stimmung": 2002,
      "rank": 2003,
      "over": 2004,
      "Ġworden": 2005,
      "Ġrapporteur": 2006,
      "ude": 2007,
      "Ġcre": 2008,
      "adam": 2009,
      "abil": 2010,
      "Ġhealth": 2011,
      "Ġnegoti": 2012,
      "Ġnie": 2013,
      "stellung": 2014,
      "Ġsimp": 2015,
      "ird": 2016,
      "ĠFragen": 2017,
      "lus": 2018,
      "halts": 2019,
      "Ġemploy": 2020,
      "ĠweiÃŁ": 2021,
      "ĠBes": 2022,
      "Ġgesagt": 2023,
      "politik": 2024,
      "neh": 2025,
      "annt": 2026,
      "ĠTreaty": 2027,
      "markt": 2028,
      "ĠbegrÃ": 2029,
      "Ġrepres": 2030,
      "fort": 2031,
      "ĠKo": 2032,
      "ried": 2033,
      "ĠGrÃ": 2034,
      "Ġide": 2035,
      "ĠInformation": 2036,
      "ĠMrs": 2037,
      "Ġproced": 2038,
      "Sch": 2039,
      "geord": 2040,
      "Ġsecurity": 2041,
      "racht": 2042,
      "Ġcond": 2043,
      "Ġalles": 2044,
      "ĠBedeut": 2045,
      "Ġdirective": 2046,
      "Ġestablish": 2047,
      "agement": 2048,
      "Ġgentlemen": 2049,
      "ĠLÃ¤ndern": 2050,
      "icle": 2051,
      "Ġshe": 2052,
      "Ġused": 2053,
      "iften": 2054,
      "Ġconsum": 2055,
      "undheit": 2056,
      "ierten": 2057,
      "Ġparticularly": 2058,
      "Ġdaher": 2059,
      "itiative": 2060,
      "ĠEntschlieÃŁ": 2061,
      "Ġeigen": 2062,
      "ĠStand": 2063,
      "ĠBedeutung": 2064,
      "ĠSituation": 2065,
      "ĠEnergie": 2066,
      "yp": 2067,
      "Re": 2068,
      "spolitik": 2069,
      "Ġfavour": 2070,
      "Ġdifficult": 2071,
      "St": 2072,
      "Ġresult": 2073,
      "ways": 2074,
      "ĠÃ¤": 2075,
      "ott": 2076,
      "itor": 2077,
      "Ġseiner": 2078,
      "imes": 2079,
      "Ġeinfach": 2080,
      "gleich": 2081,
      "Ġfol": 2082,
      "esehen": 2083,
      "sprache": 2084,
      "wÃ": 2085,
      "ĠLage": 2086,
      "Ġcontro": 2087,
      "Ġresolution": 2088,
      "ĠPol": 2089,
      "ĠMeinung": 2090,
      "iness": 2091,
      "Ã¤rk": 2092,
      "ually": 2093,
      "ugen": 2094,
      "tain": 2095,
      "ĠRegierung": 2096,
      "Ã¤hrend": 2097,
      "geordne": 2098,
      "ccess": 2099,
      "thing": 2100,
      "sequ": 2101,
      "ĠZukunft": 2102,
      "ĠPrÃ¤sidentin": 2103,
      "isions": 2104,
      "ilt": 2105,
      "use": 2106,
      "Ġglobal": 2107,
      "ĠRichtlinie": 2108,
      "ters": 2109,
      "Ġwaren": 2110,
      "ders": 2111,
      "Ġwhether": 2112,
      "lk": 2113,
      "iving": 2114,
      "flicht": 2115,
      "Ġdeal": 2116,
      "osition": 2117,
      "Ġclos": 2118,
      "Ġglaube": 2119,
      "Ġble": 2120,
      "ĠFraktion": 2121,
      "Ġbu": 2122,
      "br": 2123,
      "nst": 2124,
      "zess": 2125,
      "Ġbesteht": 2126,
      "EN": 2127,
      "wick": 2128,
      "ivil": 2129,
      "ĠUnited": 2130,
      "ek": 2131,
      "Ġaff": 2132,
      "Ġopen": 2133,
      "zept": 2134,
      "Ġinde": 2135,
      "ante": 2136,
      "gre": 2137,
      "Ġnotwend": 2138,
      "Ġwomen": 2139,
      "Ġopin": 2140,
      "wirtschaft": 2141,
      "nnte": 2142,
      "Ġdecision": 2143,
      "Se": 2144,
      "Ġho": 2145,
      "Ġdel": 2146,
      "bed": 2147,
      "ize": 2148,
      "ĠVerbrauch": 2149,
      "Als": 2150,
      "Ġpract": 2151,
      "Ġserious": 2152,
      "ĠTran": 2153,
      "ffent": 2154,
      "Ġtalk": 2155,
      "Ġthree": 2156,
      "Ġbus": 2157,
      "Ġnext": 2158,
      "ĠErgeb": 2159,
      "Ġlet": 2160,
      "leicht": 2161,
      "av": 2162,
      "ĠauÃŁer": 2163,
      "Ġter": 2164,
      "ÃŁe": 2165,
      "fte": 2166,
      "Ġkle": 2167,
      "ified": 2168,
      "ĠFrauen": 2169,
      "ĠPr": 2170,
      "bene": 2171,
      "Ġstehen": 2172,
      "cken": 2173,
      "Ġadv": 2174,
      "reffen": 2175,
      "Ġshow": 2176,
      "Ġcolle": 2177,
      "Ġcurrently": 2178,
      "ĠProbleme": 2179,
      "Ġabs": 2180,
      "ĠAusschuss": 2181,
      "ctions": 2182,
      "idency": 2183,
      "Ġcap": 2184,
      "Ġwhole": 2185,
      "Ġbetr": 2186,
      "Ġneeds": 2187,
      "ĠMinister": 2188,
      "Ġnichts": 2189,
      "Ġrole": 2190,
      "Ġproject": 2191,
      "Ġsector": 2192,
      "ĠSchutz": 2193,
      "Ġerforder": 2194,
      "miss": 2195,
      "ĠJahre": 2196,
      "ĠRegel": 2197,
      "Ġcor": 2198,
      "Ġservices": 2199,
      "Du": 2200,
      "ĠeuropÃ¤ische": 2201,
      "ĠGen": 2202,
      "Ġpolitischen": 2203,
      "riff": 2204,
      "Ġlea": 2205,
      "Ġchild": 2206,
      "ĠPl": 2207,
      "ĠBest": 2208,
      "Ġcontrib": 2209,
      "Ġsubject": 2210,
      "Ġbasis": 2211,
      "net": 2212,
      "orts": 2213,
      "iver": 2214,
      "emp": 2215,
      "Ġcris": 2216,
      "Ġexpress": 2217,
      "nft": 2218,
      "alen": 2219,
      "hÃ¤lt": 2220,
      "Ġdra": 2221,
      "Ġstren": 2222,
      "Ġfun": 2223,
      "gether": 2224,
      "ix": 2225,
      "ĠdÃ": 2226,
      "Ġreason": 2227,
      "Ġpri": 2228,
      "uge": 2229,
      "Ġdich": 2230,
      "wards": 2231,
      "mework": 2232,
      "Ġdavon": 2233,
      "Ġamendments": 2234,
      "Ġlassen": 2235,
      "Ġprogress": 2236,
      "ĠMill": 2237,
      "ware": 2238,
      "Ġunseren": 2239,
      "ying": 2240,
      "Ġverschieden": 2241,
      "ĠgehÃ": 2242,
      "Ġstatt": 2243,
      "Ġexist": 2244,
      "ĠAbgeordne": 2245,
      "unde": 2246,
      "wirk": 2247,
      "rieden": 2248,
      "Ġeinge": 2249,
      "Ġcrit": 2250,
      "lichkeit": 2251,
      "Ġfew": 2252,
      "Ġdrei": 2253,
      "ĠStaaten": 2254,
      "ĠBesch": 2255,
      "ystems": 2256,
      "tem": 2257,
      "Ġwes": 2258,
      "Ġapproach": 2259,
      "Ġcommit": 2260,
      "Ġrules": 2261,
      "na": 2262,
      "ule": 2263,
      "Ġimm": 2264,
      "Ġsecond": 2265,
      "Ġtrade": 2266,
      "ĠÃĸ": 2267,
      "Ġph": 2268,
      "Ġprogramme": 2269,
      "Eine": 2270,
      "Ġagree": 2271,
      "rodu": 2272,
      "Ġproposals": 2273,
      "Ġletzten": 2274,
      "ĠEUR": 2275,
      "Ġterms": 2276,
      "Ġpar": 2277,
      "ĠWeg": 2278,
      "kÃ": 2279,
      "Ġple": 2280,
      "par": 2281,
      "ategie": 2282,
      "ĠEx": 2283,
      "Ġaid": 2284,
      "eich": 2285,
      "ĠRolle": 2286,
      "ĠRed": 2287,
      "ĠAm": 2288,
      "ator": 2289,
      "Ġpay": 2290,
      "Deshalb": 2291,
      "lÃ¤ge": 2292,
      "Ġsmall": 2293,
      "ogen": 2294,
      "Ġperson": 2295,
      "Ġcontinue": 2296,
      "ases": 2297,
      "orn": 2298,
      "Ġsens": 2299,
      "ĠMembers": 2300,
      "ober": 2301,
      "ĠBar": 2302,
      "Ġjob": 2303,
      "Ġeben": 2304,
      "Ġvar": 2305,
      "idar": 2306,
      "allen": 2307,
      "Ġdep": 2308,
      "Ġadopted": 2309,
      "Ġmember": 2310,
      "ake": 2311,
      "ics": 2312,
      "esellschaft": 2313,
      "ĠZusammenhang": 2314,
      "ganisation": 2315,
      "ĠWettbewer": 2316,
      "agen": 2317,
      "ants": 2318,
      "Ġworking": 2319,
      "Ġpers": 2320,
      "fet": 2321,
      "oney": 2322,
      "Ġbal": 2323,
      "oss": 2324,
      "Ġcost": 2325,
      "aum": 2326,
      "raph": 2327,
      "Ġrev": 2328,
      "Ġihnen": 2329,
      "Ġalways": 2330,
      "ively": 2331,
      "Ġremain": 2332,
      "ierungs": 2333,
      "elf": 2334,
      "gaben": 2335,
      "Ġwerde": 2336,
      "Ġpoin": 2337,
      "schied": 2338,
      "ĠPerson": 2339,
      "Ġlegislation": 2340,
      "Ġprof": 2341,
      "ĠAug": 2342,
      "Ġinstit": 2343,
      "Ġloc": 2344,
      "ference": 2345,
      "ock": 2346,
      "oten": 2347,
      "Ġduring": 2348,
      "rop": 2349,
      "round": 2350,
      "utes": 2351,
      "Ġander": 2352,
      "Ġunderstand": 2353,
      "Ġaim": 2354,
      "glichen": 2355,
      "ĠArtikel": 2356,
      "Ġstep": 2357,
      "ĠAbstimmung": 2358,
      "ared": 2359,
      "Ġconcerned": 2360,
      "eiten": 2361,
      "Ġsehen": 2362,
      "Ġcrisis": 2363,
      "uten": 2364,
      "Ġgrow": 2365,
      "ktiv": 2366,
      "umen": 2367,
      "ĠBel": 2368,
      "ody": 2369,
      "Ġtogether": 2370,
      "Ġsuccess": 2371,
      "Ġladies": 2372,
      "wendung": 2373,
      "ĠAussprache": 2374,
      "Ġaccount": 2375,
      "ivid": 2376,
      "Ġbef": 2377,
      "Ġopinion": 2378,
      "sung": 2379,
      "Ġfinden": 2380,
      "ĠDisk": 2381,
      "ĠFort": 2382,
      "Ġstart": 2383,
      "urz": 2384,
      "Ġaccept": 2385,
      "ĠGo": 2386,
      "Ġerst": 2387,
      "Ġdabei": 2388,
      "Aus": 2389,
      "Ġforward": 2390,
      "ode": 2391,
      "ĠnÃ¤ch": 2392,
      "term": 2393,
      "Ġdefin": 2394,
      "merk": 2395,
      "ĠFisch": 2396,
      "ĠIhr": 2397,
      "uktur": 2398,
      "ĠStra": 2399,
      "ĠMarkt": 2400,
      "rift": 2401,
      "Ġmention": 2402,
      "az": 2403,
      "weisen": 2404,
      "Ġextre": 2405,
      "ĠAnsicht": 2406,
      "atur": 2407,
      "Ġmil": 2408,
      "Ġanother": 2409,
      "Ã¤tz": 2410,
      "Ġhatte": 2411,
      "Ġpass": 2412,
      "Ġthings": 2413,
      "gew": 2414,
      "schaften": 2415,
      "Ġsteht": 2416,
      "ĠLebens": 2417,
      "At": 2418,
      "ĠgroÃŁe": 2419,
      "ER": 2420,
      "legenheit": 2421,
      "earch": 2422,
      "ness": 2423,
      "Ġbene": 2424,
      "arliament": 2425,
      "Ġpositive": 2426,
      "ides": 2427,
      "roffen": 2428,
      "uft": 2429,
      "Ġproducts": 2430,
      "gung": 2431,
      "nov": 2432,
      "hÃ¤ng": 2433,
      "ged": 2434,
      "ĠJan": 2435,
      "Ġbew": 2436,
      "Ã¤tze": 2437,
      "Ġsur": 2438,
      "Ġvis": 2439,
      "Ġhoffe": 2440,
      "Ġpriv": 2441,
      "rise": 2442,
      "esen": 2443,
      "ĠÃĦnderungsan": 2444,
      "fassung": 2445,
      "Ġfree": 2446,
      "Ġdarf": 2447,
      "ĠVol": 2448,
      "Ġoper": 2449,
      "Ġwelcome": 2450,
      "Ġcomple": 2451,
      "ĠState": 2452,
      "onds": 2453,
      "ĠHaushalts": 2454,
      "Ġverl": 2455,
      "Ġstellen": 2456,
      "fety": 2457,
      "Ġbrauchen": 2458,
      "oment": 2459,
      "liegen": 2460,
      "TO": 2461,
      "Ġdaran": 2462,
      "ĠWeise": 2463,
      "itÃ¤ten": 2464,
      "Ġtax": 2465,
      "Ver": 2466,
      "Ġbusiness": 2467,
      "Ġframework": 2468,
      "grat": 2469,
      "Ġzwar": 2470,
      "Ġinstitutions": 2471,
      "blick": 2472,
      "utet": 2473,
      "ĠGerm": 2474,
      "row": 2475,
      "Ġmean": 2476,
      "pecial": 2477,
      "igr": 2478,
      "gabe": 2479,
      "ily": 2480,
      "Ġfinanz": 2481,
      "under": 2482,
      "ĠVerhand": 2483,
      "Ġben": 2484,
      "ĠAs": 2485,
      "Ġhappen": 2486,
      "ielt": 2487,
      "Ġlife": 2488,
      "ingungen": 2489,
      "amental": 2490,
      "Ġpower": 2491,
      "ĠRÃ": 2492,
      "ittle": 2493,
      "ĠPunkt": 2494,
      "hing": 2495,
      "Ġdir": 2496,
      "ĠUN": 2497,
      "unter": 2498,
      "Ġbenef": 2499,
      "Ġihm": 2500,
      "ĠMed": 2501,
      "ervor": 2502,
      "ĠwÃ¤hrend": 2503,
      "Ġtransport": 2504,
      "strument": 2505,
      "ĠgegenÃ": 2506,
      "ifft": 2507,
      "gration": 2508,
      "leist": 2509,
      "ĠDemokrat": 2510,
      "ĠgewÃ¤hr": 2511,
      "Ġlarge": 2512,
      "gestellt": 2513,
      "gemein": 2514,
      "Ġje": 2515,
      "edom": 2516,
      "ross": 2517,
      "Ġliegt": 2518,
      "Ġeach": 2519,
      "Ġans": 2520,
      "Ġdirect": 2521,
      "ĠNov": 2522,
      "bau": 2523,
      "Ġconditions": 2524,
      "igkeiten": 2525,
      "Auf": 2526,
      "ĠBr": 2527,
      "com": 2528,
      "Frau": 2529,
      "ĠZug": 2530,
      "ists": 2531,
      "rfen": 2532,
      "rech": 2533,
      "ĠWahl": 2534,
      "Ġprovide": 2535,
      "ĠPre": 2536,
      "Ġbetrifft": 2537,
      "Ġresour": 2538,
      "ieten": 2539,
      "ĠDas": 2540,
      "Ġgot": 2541,
      "wÃ¤r": 2542,
      "Ġdet": 2543,
      "treten": 2544,
      "Ġmonth": 2545,
      "These": 2546,
      "Ġagr": 2547,
      "schutz": 2548,
      "ĠDebat": 2549,
      "Ġnever": 2550,
      "Ġcare": 2551,
      "uments": 2552,
      "Ġsoc": 2553,
      "iety": 2554,
      "ĠVerantwort": 2555,
      "Ġnor": 2556,
      "ustrie": 2557,
      "Ġgel": 2558,
      "FÃ": 2559,
      "prochen": 2560,
      "Ġspeak": 2561,
      "Ġbecome": 2562,
      "atives": 2563,
      "Ã¤d": 2564,
      "stehen": 2565,
      "ĠFol": 2566,
      "ĠGesundheit": 2567,
      "Ġresearch": 2568,
      "rachten": 2569,
      "Ġspecific": 2570,
      "Ġmoney": 2571,
      "ĠMin": 2572,
      "fÃ¤h": 2573,
      "Ġavail": 2574,
      "ught": 2575,
      "staat": 2576,
      "ppe": 2577,
      "Ġagricult": 2578,
      "ĠRep": 2579,
      "Ġhervor": 2580,
      "Ġactiv": 2581,
      "ĠSep": 2582,
      "ising": 2583,
      "Ġgenau": 2584,
      "ĠTÃ": 2585,
      "Ġtowards": 2586,
      "ĠLis": 2587,
      "ĠTur": 2588,
      "racy": 2589,
      "rad": 2590,
      "Ġkommt": 2591,
      "ratic": 2592,
      "ĠKolleg": 2593,
      "Ġless": 2594,
      "ata": 2595,
      "ĠUhr": 2596,
      "iod": 2597,
      "ufen": 2598,
      "ationen": 2599,
      "Ã¤mlich": 2600,
      "Ġerhalten": 2601,
      "No": 2602,
      "mb": 2603,
      "Ġgerade": 2604,
      "Ġcurrent": 2605,
      "line": 2606,
      "arante": 2607,
      "Ġaddition": 2608,
      "Ġeng": 2609,
      "ĠAnge": 2610,
      "Ġlittle": 2611,
      "ennt": 2612,
      "ĠBeispiel": 2613,
      "ĠDienst": 2614,
      "iol": 2615,
      "Ġindustry": 2616,
      "Ġersten": 2617,
      "dings": 2618,
      "ĠTag": 2619,
      "druck": 2620,
      "ĠVerbraucher": 2621,
      "ĠnÃ¤mlich": 2622,
      "ĠberÃ": 2623,
      "Ġstate": 2624,
      "same": 2625,
      "iar": 2626,
      "ĠKontro": 2627,
      "ĠSozial": 2628,
      "Ġcommun": 2629,
      "zip": 2630,
      "Ġlead": 2631,
      "per": 2632,
      "uÃŁen": 2633,
      "Ġregul": 2634,
      "ĠGesch": 2635,
      "kay": 2636,
      "Ġrelations": 2637,
      "ica": 2638,
      "aut": 2639,
      "iber": 2640,
      "Ġerz": 2641,
      "low": 2642,
      "ativen": 2643,
      "ieder": 2644,
      "Ġquite": 2645,
      "Ġindivid": 2646,
      "Ã¤chst": 2647,
      "Ġapplic": 2648,
      "ĠWirtschafts": 2649,
      "gang": 2650,
      "Ġess": 2651,
      "Ġgehen": 2652,
      "Ġregion": 2653,
      "Ġintrodu": 2654,
      "Ġinner": 2655,
      "Ġbeim": 2656,
      "Ġmov": 2657,
      "ĠGer": 2658,
      "tember": 2659,
      "Ab": 2660,
      "ĠNamen": 2661,
      "genda": 2662,
      "Ġbesonders": 2663,
      "Ġbringen": 2664,
      "Ġair": 2665,
      "To": 2666,
      "Ġfound": 2667,
      "part": 2668,
      "Ġgesam": 2669,
      "fern": 2670,
      "Ġhist": 2671,
      "ildung": 2672,
      "ĠRates": 2673,
      "Ġrece": 2674,
      "ĠUms": 2675,
      "Ġincluding": 2676,
      "Ġrepresent": 2677,
      "Ġopportunity": 2678,
      "chan": 2679,
      "fra": 2680,
      "Ġprinciple": 2681,
      "ĠAmer": 2682,
      "Ġregional": 2683,
      "Ġimportance": 2684,
      "Ġguarante": 2685,
      "Ġur": 2686,
      "Ġfeel": 2687,
      "Ġvoted": 2688,
      "Ġinform": 2689,
      "Ġonce": 2690,
      "Ġreach": 2691,
      "Ġtell": 2692,
      "nell": 2693,
      "Ġret": 2694,
      "Ġmod": 2695,
      "Ġgeneral": 2696,
      "rael": 2697,
      "Ġrecht": 2698,
      "Ġversuch": 2699,
      "Ġsure": 2700,
      "Ġkind": 2701,
      "ser": 2702,
      "fang": 2703,
      "Ġdenke": 2704,
      "Ġgemacht": 2705,
      "ĠForsch": 2706,
      "Ġauthorities": 2707,
      "Ġleast": 2708,
      "Ġessential": 2709,
      "icient": 2710,
      "Auch": 2711,
      "Let": 2712,
      "dam": 2713,
      "ĠEnde": 2714,
      "utzen": 2715,
      "wand": 2716,
      "Ġwrit": 2717,
      "Ġpeace": 2718,
      "Ġsafety": 2719,
      "recht": 2720,
      "ĠInformationen": 2721,
      "gelegt": 2722,
      "Ġfreedom": 2723,
      "Ġsuf": 2724,
      "Ġbestehen": 2725,
      "ifen": 2726,
      "ĠMay": 2727,
      "rÃ¤n": 2728,
      "Ġresources": 2729,
      "ingle": 2730,
      "Ġmillion": 2731,
      "ners": 2732,
      "Ġthird": 2733,
      "Ġderen": 2734,
      "hnt": 2735,
      "kon": 2736,
      "iew": 2737,
      "ances": 2738,
      "Ġbesser": 2739,
      "hung": 2740,
      "ĠgroÃŁen": 2741,
      "schein": 2742,
      "Ġgar": 2743,
      "Ġabsol": 2744,
      "ĠBeschÃ¤ft": 2745,
      "Dar": 2746,
      "Ġfamil": 2747,
      "ĠGroup": 2748,
      "Ġgovern": 2749,
      "eder": 2750,
      "vest": 2751,
      "Ġfollowing": 2752,
      "inge": 2753,
      "Ġcult": 2754,
      "pecially": 2755,
      "arten": 2756,
      "Ġrecog": 2757,
      "ably": 2758,
      "Ġpolitische": 2759,
      "ĠMehr": 2760,
      "Ġitself": 2761,
      "ining": 2762,
      "ĠAll": 2763,
      "akt": 2764,
      "Ġsowohl": 2765,
      "armon": 2766,
      "Ġespecially": 2767,
      "Oh": 2768,
      "ĠHilfe": 2769,
      "zw": 2770,
      "alled": 2771,
      "iesen": 2772,
      "Ġsollen": 2773,
      "ĠBem": 2774,
      "ĠTransp": 2775,
      "ĠMenschenrechte": 2776,
      "unehmen": 2777,
      "Europ": 2778,
      "Ġthing": 2779,
      "aps": 2780,
      "Ġanges": 2781,
      "spr": 2782,
      "Ġclearly": 2783,
      "raum": 2784,
      "ĠLeben": 2785,
      "Ġoffen": 2786,
      "Ġextrem": 2787,
      "ĠItal": 2788,
      "ĠNot": 2789,
      "Ġnationalen": 2790,
      "Ġfood": 2791,
      "ĠVorschlÃ¤ge": 2792,
      "ĠAntw": 2793,
      "Ġtechnolog": 2794,
      "Ġavailable": 2795,
      "text": 2796,
      "Ġmaking": 2797,
      "ield": 2798,
      "ĠEuropas": 2799,
      "irm": 2800,
      "je": 2801,
      "With": 2802,
      "yl": 2803,
      "Ġproposed": 2804,
      "ĠWoch": 2805,
      "Ġmen": 2806,
      "ĠInstitution": 2807,
      "ĠChina": 2808,
      "Ġstrategy": 2809,
      "ĠHerren": 2810,
      "Ġbestimm": 2811,
      "Ġago": 2812,
      "astr": 2813,
      "Nach": 2814,
      "ĠJul": 2815,
      "Ġdoing": 2816,
      "inistr": 2817,
      "Ġtaking": 2818,
      "Ġdarin": 2819,
      "ktionen": 2820,
      "oting": 2821,
      "Ġkeinen": 2822,
      "Ġyet": 2823,
      "Ġseem": 2824,
      "Ġhinaus": 2825,
      "Ġstud": 2826,
      "tellen": 2827,
      "reg": 2828,
      "Ġpoints": 2829,
      "Ġvorgesch": 2830,
      "Ã¤ren": 2831,
      "Ġresponsibility": 2832,
      "arn": 2833,
      "ĠForm": 2834,
      "Ġsag": 2835,
      "scheiden": 2836,
      "ĠKinder": 2837,
      "renz": 2838,
      "amt": 2839,
      "ĠEs": 2840,
      "ĠZahl": 2841,
      "Ġeinzel": 2842,
      "ĠschÃ": 2843,
      "Ġtot": 2844,
      "imate": 2845,
      "Ġgener": 2846,
      "Ġwelche": 2847,
      "ĠBezug": 2848,
      "llung": 2849,
      "komm": 2850,
      "ĠEbene": 2851,
      "Ġaccord": 2852,
      "Ġweitere": 2853,
      "My": 2854,
      "ĠPresidency": 2855,
      "ool": 2856,
      "Mein": 2857,
      "Ġreform": 2858,
      "Art": 2859,
      "asing": 2860,
      "Ġstrong": 2861,
      "DE": 2862,
      "zogen": 2863,
      "Ġdort": 2864,
      "Ġtreat": 2865,
      "bour": 2866,
      "Ġaufge": 2867,
      "Ġocc": 2868,
      "ension": 2869,
      "ĠNovember": 2870,
      "Ġinternationalen": 2871,
      "Ġinnerhalb": 2872,
      "Ġopt": 2873,
      "Ġenvironmental": 2874,
      "Ġlim": 2875,
      "ichten": 2876,
      "bereich": 2877,
      "ĠDebatte": 2878,
      "ĠGeld": 2879,
      "ika": 2880,
      "ĠUmsetzung": 2881,
      "ĠNo": 2882,
      "ĠKomp": 2883,
      "llig": 2884,
      "ĠWh": 2885,
      "Ġarbeit": 2886,
      "Ġincrease": 2887,
      "ĠEng": 2888,
      "Ġaddress": 2889,
      "achst": 2890,
      "Ġbased": 2891,
      "Ġverbess": 2892,
      "ĠAfr": 2893,
      "pri": 2894,
      "leit": 2895,
      "Ġchildren": 2896,
      "ell": 2897,
      "kre": 2898,
      "Ġnegotiations": 2899,
      "Ġseinen": 2900,
      "spl": 2901,
      "Ġrather": 2902,
      "ĠJanu": 2903,
      "Ġattention": 2904,
      "ults": 2905,
      "bon": 2906,
      "Ġmo": 2907,
      "ification": 2908,
      "Pro": 2909,
      "Ġorganis": 2910,
      "Ġviol": 2911,
      "riend": 2912,
      "ands": 2913,
      "inen": 2914,
      "Ġfight": 2915,
      "Ġpress": 2916,
      "eh": 2917,
      "Ġcreat": 2918,
      "osted": 2919,
      "Ġgr": 2920,
      "anke": 2921,
      "duc": 2922,
      "otel": 2923,
      "Ġbeiden": 2924,
      "Ġgreater": 2925,
      "Ġmight": 2926,
      "Ġel": 2927,
      "Ġfundamental": 2928,
      "Ġenc": 2929,
      "Ġtext": 2930,
      "kÃ¤mp": 2931,
      "Ġpolicies": 2932,
      "iation": 2933,
      "Ġperiod": 2934,
      "Ġderzeit": 2935,
      "ĠÃĦnderungsantrag": 2936,
      "ĠSeptember": 2937,
      "wÃ¤rt": 2938,
      "mes": 2939,
      "Ġdeutlich": 2940,
      "Ġemployment": 2941,
      "Ġdef": 2942,
      "Ġmind": 2943,
      "ean": 2944,
      "Ġweiterhin": 2945,
      "Ġvers": 2946,
      "Ġrefer": 2947,
      "Ġappropri": 2948,
      "ohn": 2949,
      "ĠPal": 2950,
      "Ġeas": 2951,
      "Ġkonn": 2952,
      "Ġdeshalb": 2953,
      "esse": 2954,
      "Ġplan": 2955,
      "ests": 2956,
      "pflicht": 2957,
      "ĠSol": 2958,
      "illeg": 2959,
      "Ġsprechen": 2960,
      "ĠApr": 2961,
      "self": 2962,
      "ĠUSA": 2963,
      "ifiz": 2964,
      "ĠDemokratie": 2965,
      "Ġshort": 2966,
      "Ġwhile": 2967,
      "ĠÃĦnderungsantrÃ¤ge": 2968,
      "vÃ": 2969,
      "Ġbre": 2970,
      "ikan": 2971,
      "ĠhÃ¤tte": 2972,
      "ĠBo": 2973,
      "ĠEntscheidung": 2974,
      "rd": 2975,
      "icial": 2976,
      "uc": 2977,
      "Ġadm": 2978,
      "Ġspecial": 2979,
      "Ġeffective": 2980,
      "ĠWort": 2981,
      "akes": 2982,
      "Ġdanken": 2983,
      "airs": 2984,
      "Ġgilt": 2985,
      "ĠDamen": 2986,
      "ination": 2987,
      "Ġmal": 2988,
      "Ġgovernment": 2989,
      "unÃ¤chst": 2990,
      "Ġmajor": 2991,
      "Ġstruct": 2992,
      "Ġsignific": 2993,
      "zuf": 2994,
      "Ġkeep": 2995,
      "Ġread": 2996,
      "sprÃ¤sident": 2997,
      "jekt": 2998,
      "burg": 2999,
      "ĠSeite": 3000,
      "ĠWer": 3001,
      "Ġmembers": 3002,
      "Ġerreichen": 3003,
      "oren": 3004,
      "aussch": 3005,
      "Ġmeinen": 3006,
      "Ġcontrol": 3007,
      "Ġinstitution": 3008,
      "ffentlich": 3009,
      "Ġvorgeschlagen": 3010,
      "Daher": 3011,
      "Ġregulation": 3012,
      "Ġerste": 3013,
      "igin": 3014,
      "fs": 3015,
      "ĠPh": 3016,
      "Hier": 3017,
      "uck": 3018,
      "ĠRechte": 3019,
      "mm": 3020,
      "Ġquality": 3021,
      "Ġmar": 3022,
      "prÃ": 3023,
      "ĠWor": 3024,
      "Ġentwick": 3025,
      "ĠRom": 3026,
      "isches": 3027,
      "Ġvielleicht": 3028,
      "iens": 3029,
      "Ġgemeinsamen": 3030,
      "mut": 3031,
      "Ġterror": 3032,
      "ĠBeg": 3033,
      "ckt": 3034,
      "ĠBehÃ": 3035,
      "Ġzust": 3036,
      "ĠAsp": 3037,
      "Ġsolche": 3038,
      "Ġsingle": 3039,
      "Ġschnell": 3040,
      "ferenz": 3041,
      "ĠDaten": 3042,
      "Ġmilit": 3043,
      "gesehen": 3044,
      "Ġvarious": 3045,
      "Ġsociety": 3046,
      "Ġwichtige": 3047,
      "pl": 3048,
      "ĠGegen": 3049,
      "spect": 3050,
      "verkehr": 3051,
      "bei": 3052,
      "onger": 3053,
      "wh": 3054,
      "Ġnehmen": 3055,
      "Fin": 3056,
      "iges": 3057,
      "ziehungen": 3058,
      "Ġilleg": 3059,
      "chnolog": 3060,
      "Ġverst": 3061,
      "Ġturn": 3062,
      "Ġdemocracy": 3063,
      "nehmer": 3064,
      "inzip": 3065,
      "ĠgefÃ": 3066,
      "Ġdemokrat": 3067,
      "Ġdata": 3068,
      "Ġrele": 3069,
      "gegen": 3070,
      "Ġhaving": 3071,
      "Ġsum": 3072,
      "reiheit": 3073,
      "Ġmult": 3074,
      "Ġhandelt": 3075,
      "Ġexperien": 3076,
      "Ġenter": 3077,
      "Ġinternal": 3078,
      "less": 3079,
      "vement": 3080,
      "nÃ": 3081,
      "ierungen": 3082,
      "ĠFÃ¤": 3083,
      "Ġachieve": 3084,
      "ES": 3085,
      "ĠVerfahren": 3086,
      "entur": 3087,
      "ĠZust": 3088,
      "Ġforce": 3089,
      "Ġprocedure": 3090,
      "ived": 3091,
      "erecht": 3092,
      "glichkeiten": 3093,
      "Ġbitte": 3094,
      "opp": 3095,
      "ĠheiÃŁ": 3096,
      "Ġbor": 3097,
      "ins": 3098,
      "ĠMal": 3099,
      "Posted": 3100,
      "ĠDank": 3101,
      "Bei": 3102,
      "ined": 3103,
      "Ġcomplete": 3104,
      "idence": 3105,
      "Ġak": 3106,
      "ĠErklÃ¤r": 3107,
      "Ġoffer": 3108,
      "ĠSystem": 3109,
      "ĠKolleginnen": 3110,
      "ĠZwe": 3111,
      "ĠVerantwortung": 3112,
      "wirkungen": 3113,
      "orth": 3114,
      "Ġeinigen": 3115,
      "fehl": 3116,
      "unkte": 3117,
      "ify": 3118,
      "ustain": 3119,
      "Madam": 3120,
      "ĠGesetz": 3121,
      "Ġfair": 3122,
      "ĠEntwicklungs": 3123,
      "ĠermÃ": 3124,
      "orm": 3125,
      "Ġdou": 3126,
      "Ġkurz": 3127,
      "Ġpop": 3128,
      "Ġamong": 3129,
      "Ġimplementation": 3130,
      "Ġefforts": 3131,
      "Ã¤chlich": 3132,
      "gesetzt": 3133,
      "ĠEC": 3134,
      "Ġstar": 3135,
      "Ġwords": 3136,
      "ĠUr": 3137,
      "by": 3138,
      "Ġinvolved": 3139,
      "Ġgute": 3140,
      "anies": 3141,
      "Ġwahr": 3142,
      "Ġvielen": 3143,
      "Ġinterests": 3144,
      "Ġtrad": 3145,
      "ians": 3146,
      "zustellen": 3147,
      "maÃŁ": 3148,
      "ĠProt": 3149,
      "Ġmot": 3150,
      "asch": 3151,
      "cr": 3152,
      "Ġnon": 3153,
      "Ġaspect": 3154,
      "Ġpat": 3155,
      "Ġentsprechen": 3156,
      "Man": 3157,
      "ĠBinnen": 3158,
      "Ġoften": 3159,
      "enten": 3160,
      "gement": 3161,
      "ĠSitz": 3162,
      "Ġeigenen": 3163,
      "ister": 3164,
      "ceed": 3165,
      "ielle": 3166,
      "ights": 3167,
      "ĠDec": 3168,
      "Ġeconomy": 3169,
      "ilater": 3170,
      "Ġfolgen": 3171,
      "Ġgestimmt": 3172,
      "ĠZiele": 3173,
      "Ġpartners": 3174,
      "Ġnotwendig": 3175,
      "kten": 3176,
      "oy": 3177,
      "Ġversch": 3178,
      "til": 3179,
      "Ġchallen": 3180,
      "Ġschaffen": 3181,
      "Ġregions": 3182,
      "Ġgemeinsame": 3183,
      "zeitig": 3184,
      "key": 3185,
      "Ġdemocratic": 3186,
      "eits": 3187,
      "Ġangenommen": 3188,
      "ĠIsrael": 3189,
      "ĠVerhandlungen": 3190,
      "ĠPat": 3191,
      "Ġsei": 3192,
      "ĠGew": 3193,
      "Ġann": 3194,
      "Ġrisk": 3195,
      "Ġstellt": 3196,
      "ches": 3197,
      "Ġebenfalls": 3198,
      "though": 3199,
      "finden": 3200,
      "sichtlich": 3201,
      "yn": 3202,
      "ĠInvest": 3203,
      "usst": 3204,
      "Ġwoll": 3205,
      "Ġmonths": 3206,
      "isher": 3207,
      "Ġdoc": 3208,
      "Ġsozialen": 3209,
      "ĠStrategie": 3210,
      "asst": 3211,
      "schriften": 3212,
      "ĠAut": 3213,
      "Ġentscheiden": 3214,
      "Ġteil": 3215,
      "Ġadopt": 3216,
      "Ġtro": 3217,
      "reicht": 3218,
      "Ġrest": 3219,
      "einander": 3220,
      "Ġexc": 3221,
      "Ġcompanies": 3222,
      "Ġbuild": 3223,
      "ĠFund": 3224,
      "Ġgegeben": 3225,
      "wohl": 3226,
      "osed": 3227,
      "ĠHÃ": 3228,
      "ĠEntschlieÃŁung": 3229,
      "go": 3230,
      "ĠverfÃ": 3231,
      "ĠDiskuss": 3232,
      "ĠOp": 3233,
      "nnten": 3234,
      "Ġresults": 3235,
      "ĠDurch": 3236,
      "Ġproduction": 3237,
      "ĠMillionen": 3238,
      "fre": 3239,
      "Ġpa": 3240,
      "lau": 3241,
      "ĠErweit": 3242,
      "Ġenough": 3243,
      "ait": 3244,
      "Ġtable": 3245,
      "Ġnothing": 3246,
      "verstÃ¤nd": 3247,
      "ĠVerbess": 3248,
      "Ġfully": 3249,
      "ringen": 3250,
      "ĠAbkommen": 3251,
      "ought": 3252,
      "Ġsolution": 3253,
      "Ġconcerns": 3254,
      "cen": 3255,
      "Ġactually": 3256,
      "Ġwohl": 3257,
      "aterial": 3258,
      "ichtet": 3259,
      "drÃ": 3260,
      "ĠJahres": 3261,
      "imme": 3262,
      "asser": 3263,
      "ĠEmp": 3264,
      "Ġbedeutet": 3265,
      "Ã¤nde": 3266,
      "obil": 3267,
      "has": 3268,
      "Ġhast": 3269,
      "Ġcolleag": 3270,
      "iere": 3271,
      "Ġzie": 3272,
      "Ġquestions": 3273,
      "ĠGrundlage": 3274,
      "achstum": 3275,
      "Ġeduc": 3276,
      "ĠHinblick": 3277,
      "Ġtimes": 3278,
      "gefÃ": 3279,
      "Ġenlar": 3280,
      "weis": 3281,
      "deut": 3282,
      "ĠJun": 3283,
      "Ġcompetition": 3284,
      "gern": 3285,
      "heb": 3286,
      "ized": 3287,
      "kÃ¤mpfung": 3288,
      "Ġsubst": 3289,
      "Ġcommittee": 3290,
      "Ġlab": 3291,
      "Ġjeder": 3292,
      "Ġprevent": 3293,
      "Ġstandards": 3294,
      "ĠFrieden": 3295,
      "ĠIr": 3296,
      "Ġhig": 3297,
      "rderung": 3298,
      "Ġgrund": 3299,
      "ĠFamil": 3300,
      "angen": 3301,
      "istan": 3302,
      "Ġverschiedenen": 3303,
      "ĠVerkehr": 3304,
      "merksam": 3305,
      "orted": 3306,
      "han": 3307,
      "weg": 3308,
      "ĠAbgeordneten": 3309,
      "sweise": 3310,
      "ultur": 3311,
      "Ġblo": 3312,
      "Ġbit": 3313,
      "licht": 3314,
      "ibil": 3315,
      "sid": 3316,
      "Ġsustain": 3317,
      "Ġbl": 3318,
      "Ġwenig": 3319,
      "Ġweniger": 3320,
      "adt": 3321,
      "ĠTats": 3322,
      "ĠDeut": 3323,
      "ĠerwÃ¤": 3324,
      "Ġjeden": 3325,
      "Ġmoment": 3326,
      "Ġakt": 3327,
      "abhÃ¤ng": 3328,
      "half": 3329,
      "sse": 3330,
      "mals": 3331,
      "Ġsug": 3332,
      "ĠVers": 3333,
      "ĠApril": 3334,
      "ĠInstitutionen": 3335,
      "Ġzahl": 3336,
      "Dieser": 3337,
      "Ġdisk": 3338,
      "ĠArticle": 3339,
      "Ġlink": 3340,
      "istance": 3341,
      "Ġcertainly": 3342,
      "oung": 3343,
      "Ġparticip": 3344,
      "mitt": 3345,
      "ĠgewÃ¤hrle": 3346,
      "ĠQual": 3347,
      "jen": 3348,
      "ziehen": 3349,
      "ĠAuswirkungen": 3350,
      "ĠGleich": 3351,
      "Ġcontain": 3352,
      "ĠFran": 3353,
      "Ġsimply": 3354,
      "Ġche": 3355,
      "When": 3356,
      "ĠYou": 3357,
      "Ġstatement": 3358,
      "erb": 3359,
      "Ġsignificant": 3360,
      "anges": 3361,
      "ĠAntwort": 3362,
      "ommend": 3363,
      "immungen": 3364,
      "ĠFischere": 3365,
      "linien": 3366,
      "cher": 3367,
      "Ġcreate": 3368,
      "IT": 3369,
      "haps": 3370,
      "ĠMan": 3371,
      "Ġabge": 3372,
      "Ġerne": 3373,
      "gthen": 3374,
      "Ġled": 3375,
      "Ġcivil": 3376,
      "auer": 3377,
      "Ġbehalf": 3378,
      "ĠRegion": 3379,
      "Ġgrowth": 3380,
      "Ġmiss": 3381,
      "andid": 3382,
      "Ġdarum": 3383,
      "Ġadministr": 3384,
      "Ġfl": 3385,
      "Ġaware": 3386,
      "ets": 3387,
      "ĠPort": 3388,
      "ĠText": 3389,
      "ĠnÃ¤chsten": 3390,
      "Ġfield": 3391,
      "ĠAgr": 3392,
      "Ġakzept": 3393,
      "ĠBevÃ": 3394,
      "Ġparliament": 3395,
      "eign": 3396,
      "nden": 3397,
      "SE": 3398,
      "ars": 3399,
      "forderungen": 3400,
      "Ġapply": 3401,
      "voll": 3402,
      "lieÃŁlich": 3403,
      "alitÃ¤t": 3404,
      "ulate": 3405,
      "outh": 3406,
      "hnen": 3407,
      "Ġfriend": 3408,
      "Ġschwier": 3409,
      "ĠDire": 3410,
      "Do": 3411,
      "gency": 3412,
      "Ġzus": 3413,
      "ĠKosten": 3414,
      "Our": 3415,
      "Ġfunds": 3416,
      "eless": 3417,
      "benso": 3418,
      "Ġkey": 3419,
      "Ġextremely": 3420,
      "ÃŁt": 3421,
      "ialogue": 3422,
      "ĠRegionen": 3423,
      "ĠZugang": 3424,
      "schrift": 3425,
      "haltung": 3426,
      "Ġumf": 3427,
      "mÃ¤ÃŁ": 3428,
      "Ġident": 3429,
      "Le": 3430,
      "ĠPri": 3431,
      "Ġlange": 3432,
      "ĠRei": 3433,
      "ĠInteresse": 3434,
      "Ġprogrammes": 3435,
      "ented": 3436,
      "ec": 3437,
      "Ġconclus": 3438,
      "AT": 3439,
      "verfahren": 3440,
      "Ġmacht": 3441,
      "ĠAt": 3442,
      "Ġstrengthen": 3443,
      "so": 3444,
      "Ġgroups": 3445,
      "Ġcongrat": 3446,
      "abon": 3447,
      "Ġaround": 3448,
      "Ġwater": 3449,
      "ĠChr": 3450,
      "ift": 3451,
      "Ġdessen": 3452,
      "Ġdecisions": 3453,
      "Ġprec": 3454,
      "ĠBinnenmarkt": 3455,
      "Ġemphas": 3456,
      "ĠPartner": 3457,
      "Ġmeeting": 3458,
      "ĠFlug": 3459,
      "Ġincreasing": 3460,
      "First": 3461,
      "hes": 3462,
      "En": 3463,
      "ĠRes": 3464,
      "Ġencour": 3465,
      "ĠKamp": 3466,
      "ĠGovernment": 3467,
      "ĠPM": 3468,
      "alle": 3469,
      "Ġhon": 3470,
      "Ġrecommend": 3471,
      "Ġprotect": 3472,
      "Ġmajority": 3473,
      "ĠerklÃ¤r": 3474,
      "ennen": 3475,
      "Thank": 3476,
      "ocus": 3477,
      "fortun": 3478,
      "ĠGeschÃ¤ft": 3479,
      "ĠInternational": 3480,
      "Ġanswer": 3481,
      "ication": 3482,
      "Ja": 3483,
      "Ġorigin": 3484,
      "Ġaut": 3485,
      "ĠQu": 3486,
      "AN": 3487,
      "ispielsweise": 3488,
      "ĠPersonen": 3489,
      "Ġeig": 3490,
      "issabon": 3491,
      "Ġsogar": 3492,
      "Ġmeinem": 3493,
      "ĠSan": 3494,
      "Vor": 3495,
      "Ġrestr": 3496,
      "ĠErweiterung": 3497,
      "setzung": 3498,
      "iken": 3499,
      "ĠstÃ¤rk": 3500,
      "Ġtas": 3501,
      "rechts": 3502,
      "Ġothers": 3503,
      "sk": 3504,
      "Ġfarm": 3505,
      "igration": 3506,
      "ĠLisbon": 3507,
      "Ġbleiben": 3508,
      "ĠLissabon": 3509,
      "ĠVerordnung": 3510,
      "ĠStruktur": 3511,
      "sequen": 3512,
      "AR": 3513,
      "Ġobl": 3514,
      "ĠAusdruck": 3515,
      "ĠHaushalt": 3516,
      "umente": 3517,
      "ĠReform": 3518,
      "aged": 3519,
      "rke": 3520,
      "ĠFr": 3521,
      "Ġamendment": 3522,
      "Ġfish": 3523,
      "lÃ¤ndern": 3524,
      "ĠOrganisation": 3525,
      "Ġhalten": 3526,
      "reen": 3527,
      "Ġsever": 3528,
      "Ġidea": 3529,
      "Ġrichtig": 3530,
      "Ge": 3531,
      "Ġpo": 3532,
      "vorschriften": 3533,
      "Ġerforderlich": 3534,
      "Ġagreements": 3535,
      "Ġaway": 3536,
      "ĠSw": 3537,
      "wegen": 3538,
      "Ġline": 3539,
      "side": 3540,
      "rkei": 3541,
      "Ġnet": 3542,
      "Ġrecent": 3543,
      "ĠParte": 3544,
      "ĠDer": 3545,
      "Well": 3546,
      "Ġbehand": 3547,
      "Ã¤s": 3548,
      "ffentlichen": 3549,
      "Ġseen": 3550,
      "Ġihrem": 3551,
      "istet": 3552,
      "Ġsystems": 3553,
      "uh": 3554,
      "anger": 3555,
      "Ne": 3556,
      "Ġindem": 3557,
      "lands": 3558,
      "Ġassess": 3559,
      "Ġtats": 3560,
      "setzen": 3561,
      "Ġyoung": 3562,
      "ĠSÃ": 3563,
      "Ġobjectives": 3564,
      "ĠKos": 3565,
      "ĠKlim": 3566,
      "Ġlack": 3567,
      "Ġanim": 3568,
      "Finally": 3569,
      "Ġanal": 3570,
      "renzen": 3571,
      "altung": 3572,
      "Ġentire": 3573,
      "ĠSchritt": 3574,
      "omat": 3575,
      "Ġservice": 3576,
      "lkerung": 3577,
      "ĠKons": 3578,
      "ĠFeb": 3579,
      "ĠProgramm": 3580,
      "mor": 3581,
      "ikt": 3582,
      "ĠÃ¤uÃŁer": 3583,
      "ĠKrit": 3584,
      "nf": 3585,
      "Ġcontext": 3586,
      "elves": 3587,
      "Ġappropriate": 3588,
      "messen": 3589,
      "arbeiten": 3590,
      "Ġuntil": 3591,
      "onen": 3592,
      "ike": 3593,
      "Ġmonitor": 3594,
      "ĠCour": 3595,
      "urteil": 3596,
      "Ġgra": 3597,
      "Ġinnov": 3598,
      "Ġtrue": 3599,
      "frastr": 3600,
      "Ġterr": 3601,
      "Ġcoordin": 3602,
      "ĠBeziehungen": 3603,
      "Ġerg": 3604,
      "Ġlonger": 3605,
      "ĠGebiet": 3606,
      "Ġmanagement": 3607,
      "Al": 3608,
      "ave": 3609,
      "Ġwirtschaftlichen": 3610,
      "arian": 3611,
      "Ġpast": 3612,
      "Ġsoon": 3613,
      "ĠKraft": 3614,
      "ĠAugust": 3615,
      "Ġagricultural": 3616,
      "Ġcases": 3617,
      "Ġneeded": 3618,
      "rz": 3619,
      "ĠBeitrag": 3620,
      "Ġthems": 3621,
      "Ġthemselves": 3622,
      "One": 3623,
      "ipf": 3624,
      "Ġeuro": 3625,
      "Ġexpect": 3626,
      "ĠInte": 3627,
      "Now": 3628,
      "Ġdemon": 3629,
      "Ġrun": 3630,
      "ux": 3631,
      "Ġworkers": 3632,
      "Um": 3633,
      "itionen": 3634,
      "ĠIra": 3635,
      "Ġbeit": 3636,
      "lass": 3637,
      "orge": 3638,
      "lauben": 3639,
      "ĠAuÃŁen": 3640,
      "Ġdialogue": 3641,
      "Ġerinn": 3642,
      "Ġfocus": 3643,
      "ĠVerfÃ": 3644,
      "Ġprovided": 3645,
      "folgen": 3646,
      "ahn": 3647,
      "Ġmentioned": 3648,
      "Ġinst": 3649,
      "Ġresponsible": 3650,
      "ĠWettbewerbs": 3651,
      "Ġindividual": 3652,
      "cell": 3653,
      "jenigen": 3654,
      "atch": 3655,
      "erseits": 3656,
      "ĠTatsache": 3657,
      "Ġhome": 3658,
      "Ġstark": 3659,
      "Ġdraft": 3660,
      "Ġimpact": 3661,
      "vious": 3662,
      "ĠVerwalt": 3663,
      "ĠKomm": 3664,
      "ĠDialog": 3665,
      "irc": 3666,
      "Ġlot": 3667,
      "iellen": 3668,
      "ĠErachten": 3669,
      "ĠvÃ": 3670,
      "ĠTerror": 3671,
      "hens": 3672,
      "ĠErachtens": 3673,
      "zentr": 3674,
      "Ġimprove": 3675,
      "arf": 3676,
      "annten": 3677,
      "Ġheraus": 3678,
      "Ġhead": 3679,
      "ĠVerpflicht": 3680,
      "imum": 3681,
      "Ġsagte": 3682,
      "ethod": 3683,
      "Ġdraw": 3684,
      "ican": 3685,
      "Ġproper": 3686,
      "haft": 3687,
      "ĠVertre": 3688,
      "Ġbeispielsweise": 3689,
      "Ġlocal": 3690,
      "ĠInternet": 3691,
      "reiben": 3692,
      "ĠRatsprÃ¤sident": 3693,
      "ĠAnwendung": 3694,
      "Ġcomprom": 3695,
      "ĠVereinigten": 3696,
      "Ġrecogn": 3697,
      "ĠGesellschaft": 3698,
      "ĠBedingungen": 3699,
      "cksichtig": 3700,
      "Ġfour": 3701,
      "ĠLiber": 3702,
      "Ġfr": 3703,
      "Ġnam": 3704,
      "ssel": 3705,
      "Ġjoint": 3706,
      "ully": 3707,
      "Ġant": 3708,
      "ĠAufgabe": 3709,
      "lei": 3710,
      "Ġeverything": 3711,
      "ellen": 3712,
      "IS": 3713,
      "iled": 3714,
      "Ġroom": 3715,
      "affung": 3716,
      "Ġcho": 3717,
      "ĠReihe": 3718,
      "eah": 3719,
      "fonds": 3720,
      "frist": 3721,
      "Ġinitiative": 3722,
      "frage": 3723,
      "ĠSteuer": 3724,
      "ativ": 3725,
      "ingen": 3726,
      "ĠStellung": 3727,
      "Ġliber": 3728,
      "ĠgegenwÃ¤rt": 3729,
      "ĠheiÃŁt": 3730,
      "enken": 3731,
      "ĠTages": 3732,
      "ĠJust": 3733,
      "Ġold": 3734,
      "ĠMÃ¤r": 3735,
      "Ġhumanit": 3736,
      "ĠHeraus": 3737,
      "Ġstates": 3738,
      "ĠCourt": 3739,
      "ĠAmend": 3740,
      "pre": 3741,
      "IN": 3742,
      "Ġmakes": 3743,
      "Ġdeveloping": 3744,
      "ĠKont": 3745,
      "Is": 3746,
      "Ġindeed": 3747,
      "Ġpot": 3748,
      "Ġenlargement": 3749,
      "nde": 3750,
      "Ġfinal": 3751,
      "vent": 3752,
      "Ġroad": 3753,
      "atis": 3754,
      "Ġfall": 3755,
      "ĠPrior": 3756,
      "ĠInteressen": 3757,
      "indest": 3758,
      "ĠTurkey": 3759,
      "ucht": 3760,
      "ĠIndustrie": 3761,
      "Ġbr": 3762,
      "of": 3763,
      "Ġcover": 3764,
      "Ġbisher": 3765,
      "Ġerreicht": 3766,
      "Ġparties": 3767,
      "Ġbig": 3768,
      "ĠNew": 3769,
      "Ġhard": 3770,
      "Ġconne": 3771,
      "Ġleft": 3772,
      "ruppe": 3773,
      "Ġaufgrund": 3774,
      "pend": 3775,
      "Ġweek": 3776,
      "ĠBank": 3777,
      "Ġunterschied": 3778,
      "Ġmorgen": 3779,
      "Ġdein": 3780,
      "Ġflex": 3781,
      "Ġallerdings": 3782,
      "ĠAng": 3783,
      "ester": 3784,
      "Ġverg": 3785,
      "ĠAd": 3786,
      "ĠKommissarin": 3787,
      "stens": 3788,
      "co": 3789,
      "ĠMann": 3790,
      "She": 3791,
      "Ġobjective": 3792,
      "Ġkonkre": 3793,
      "Ġreasons": 3794,
      "ON": 3795,
      "ĠerfÃ": 3796,
      "baren": 3797,
      "Ġseinem": 3798,
      "ĠKosov": 3799,
      "schritte": 3800,
      "Ġdist": 3801,
      "Ġchar": 3802,
      "Ġsup": 3803,
      "ĠRichtung": 3804,
      "Ġseveral": 3805,
      "ators": 3806,
      "Ġbist": 3807,
      "bo": 3808,
      "elbst": 3809,
      "ffice": 3810,
      "onna": 3811,
      "Ġharmon": 3812,
      "ĠRussia": 3813,
      "Ġpost": 3814,
      "ban": 3815,
      "Ġprep": 3816,
      "Ġhatten": 3817,
      "ĠStabil": 3818,
      "ises": 3819,
      "rieg": 3820,
      "okoll": 3821,
      "amm": 3822,
      "lassen": 3823,
      "CH": 3824,
      "Ġever": 3825,
      "prÃ¤": 3826,
      "Ġland": 3827,
      "cies": 3828,
      "Ġposit": 3829,
      "Ġmatters": 3830,
      "Ġabove": 3831,
      "Ġcomes": 3832,
      "Ġoft": 3833,
      "atory": 3834,
      "ĠWas": 3835,
      "Ġdiskut": 3836,
      "chs": 3837,
      "Ġschwer": 3838,
      "ĠAff": 3839,
      "Ġmethod": 3840,
      "Ġpack": 3841,
      "iding": 3842,
      "ih": 3843,
      "Ġpur": 3844,
      "Ġmeines": 3845,
      "ĠAbsch": 3846,
      "gramm": 3847,
      "ĠSpiel": 3848,
      "Ġcosts": 3849,
      "vant": 3850,
      "ump": 3851,
      "ĠSoc": 3852,
      "Ġhelfen": 3853,
      "ĠBl": 3854,
      "app": 3855,
      "ĠfrÃ": 3856,
      "Ġconcerning": 3857,
      "Ġprojects": 3858,
      "Meine": 3859,
      "Ġfast": 3860,
      "Ġactivities": 3861,
      "ĠForschung": 3862,
      "Ġcirc": 3863,
      "Ġeducation": 3864,
      "ĠHaupt": 3865,
      "fully": 3866,
      "Ġguarantee": 3867,
      "lied": 3868,
      "hof": 3869,
      "Ġconsumers": 3870,
      "ĠKomprom": 3871,
      "ĠTr": 3872,
      "produ": 3873,
      "fortunately": 3874,
      "Ġdesign": 3875,
      "ruppen": 3876,
      "Ġclimate": 3877,
      "Ġschein": 3878,
      "Ġabsolute": 3879,
      "Ġfail": 3880,
      "temp": 3881,
      "Ġhear": 3882,
      "Ġmove": 3883,
      "Ġwriting": 3884,
      "ĠSchaffung": 3885,
      "Ġernst": 3886,
      "Ġhapp": 3887,
      "Ġjobs": 3888,
      "Ġthough": 3889,
      "ĠKultur": 3890,
      "lÃ¤nder": 3891,
      "oper": 3892,
      "ĠKrise": 3893,
      "ĠWieder": 3894,
      "uclear": 3895,
      "Ġcontinu": 3896,
      "Ġgeschlossen": 3897,
      "ĠStud": 3898,
      "arly": 3899,
      "ash": 3900,
      "Ġthought": 3901,
      "lt": 3902,
      "Ġname": 3903,
      "ĠWTO": 3904,
      "Ġwichtigen": 3905,
      "lik": 3906,
      "Ġhistor": 3907,
      "Ġhoch": 3908,
      "bereit": 3909,
      "ĠErgebnis": 3910,
      "ĠStandpunkt": 3911,
      "eden": 3912,
      "ritten": 3913,
      "indung": 3914,
      "Ã¤nger": 3915,
      "Ġeindeut": 3916,
      "leistungen": 3917,
      "wach": 3918,
      "ĠVoraus": 3919,
      "Ġdemand": 3920,
      "Ġirgend": 3921,
      "Ġtomor": 3922,
      "Ġtomorrow": 3923,
      "Ġmus": 3924,
      "ĠDeutsch": 3925,
      "ĠAnst": 3926,
      "spruch": 3927,
      "Ġerfolg": 3928,
      "ĠAnd": 3929,
      "ĠSpan": 3930,
      "fordert": 3931,
      "Ġbevor": 3932,
      "Ġdue": 3933,
      "Ġfindet": 3934,
      "Ġhalte": 3935,
      "Ġconflic": 3936,
      "ĠFahr": 3937,
      "teid": 3938,
      "Ġvorliegen": 3939,
      "Ġverein": 3940,
      "ĠForder": 3941,
      "immer": 3942,
      "ĠKap": 3943,
      "ĠStat": 3944,
      "ĠNotwend": 3945,
      "Ġrein": 3946,
      "ims": 3947,
      "schlieÃŁend": 3948,
      "Ġupon": 3949,
      "ĠAugen": 3950,
      "Ġevent": 3951,
      "anze": 3952,
      "gangenen": 3953,
      "Ġcla": 3954,
      "ĠBeschÃ¤ftigung": 3955,
      "Ġcaus": 3956,
      "ĠnÃ": 3957,
      "Ġricht": 3958,
      "Ġqual": 3959,
      "Ġinclude": 3960,
      "most": 3961,
      "ĠKontrolle": 3962,
      "Ġreports": 3963,
      "Ġcalled": 3964,
      "edi": 3965,
      "Ġkomp": 3966,
      "Ġrat": 3967,
      "ĠFortschritte": 3968,
      "aster": 3969,
      "Ġcru": 3970,
      "Ġsk": 3971,
      "ĠKosovo": 3972,
      "kra": 3973,
      "ĠLa": 3974,
      "ĠFebru": 3975,
      "hrte": 3976,
      "ĠWÃ¤hr": 3977,
      "Ġunver": 3978,
      "ĠLandwirtschaft": 3979,
      "ĠMil": 3980,
      "ehen": 3981,
      "Ġamb": 3982,
      "ĠVerbesserung": 3983,
      "arum": 3984,
      "Ġiniti": 3985,
      "utter": 3986,
      "erc": 3987,
      "ctr": 3988,
      "Ġeinzelnen": 3989,
      "Ġgonna": 3990,
      "Ġgelten": 3991,
      "ĠMadam": 3992,
      "ested": 3993,
      "Ġenthalten": 3994,
      "cellent": 3995,
      "Ġcomb": 3996,
      "Ġgetan": 3997,
      "rdern": 3998,
      "Ġterm": 3999,
      "ession": 4000,
      "ĠProzess": 4001,
      "ĠAffairs": 4002,
      "Ġdays": 4003,
      "fert": 4004,
      "ĠEur": 4005,
      "Dam": 4006,
      "Ġachieved": 4007,
      "Ġmet": 4008,
      "Ġsafe": 4009,
      "Ġjud": 4010,
      "ĠGermany": 4011,
      "bet": 4012,
      "Ġallgemein": 4013,
      "ausschuss": 4014,
      "ĠPap": 4015,
      "Ġart": 4016,
      "oh": 4017,
      "Ġdring": 4018,
      "Ġsett": 4019,
      "idarity": 4020,
      "Ġprivate": 4021,
      "stra": 4022,
      "ĠHandel": 4023,
      "sprÃ": 4024,
      "richtung": 4025,
      "ĠDinge": 4026,
      "hinder": 4027,
      "to": 4028,
      "asse": 4029,
      "atten": 4030,
      "Ġcoming": 4031,
      "ograph": 4032,
      "ĠKampf": 4033,
      "gliche": 4034,
      "ĠMehrheit": 4035,
      "ĠWachstum": 4036,
      "ienen": 4037,
      "ĠGelegenheit": 4038,
      "fÃ¤higkeit": 4039,
      "Uns": 4040,
      "Ġconstru": 4041,
      "gÃ": 4042,
      "ĠGeschÃ¤fts": 4043,
      "uÃŁerdem": 4044,
      "Ġfamily": 4045,
      "Ġvict": 4046,
      "fragen": 4047,
      "more": 4048,
      "Ġgestellt": 4049,
      "Ġstop": 4050,
      "Ġmaintain": 4051,
      "Ġquick": 4052,
      "Ġhinsichtlich": 4053,
      "Ġprinciples": 4054,
      "ĠAss": 4055,
      "ĠNotwendigkeit": 4056,
      "Denn": 4057,
      "ĠBerichts": 4058,
      "Ġshare": 4059,
      "Ġreturn": 4060,
      "ĠSicherheits": 4061,
      "bare": 4062,
      "achten": 4063,
      "Why": 4064,
      "Dieses": 4065,
      "Ġrequest": 4066,
      "ĠErfolg": 4067,
      "RO": 4068,
      "Ġverw": 4069,
      "ĠBekÃ¤mpfung": 4070,
      "ĠWirk": 4071,
      "Second": 4072,
      "ĠPrÃ¤sidentschaft": 4073,
      "Ġpurp": 4074,
      "Ġprevious": 4075,
      "Ġcred": 4076,
      "alu": 4077,
      "ĠFrank": 4078,
      "zunehmen": 4079,
      "Ã¤uf": 4080,
      "Ġclose": 4081,
      "ĠPar": 4082,
      "ternal": 4083,
      "Ġnachhalt": 4084,
      "Ġseems": 4085,
      "ĠFest": 4086,
      "ĠMitte": 4087,
      "ĠBereichen": 4088,
      "Ġfort": 4089,
      "ĠErgebnisse": 4090,
      "ĠIde": 4091,
      "Ġusing": 4092,
      "Ġverd": 4093,
      "Ġlight": 4094,
      "Ġbekannt": 4095,
      "ĠgefÃ¤hr": 4096,
      "wander": 4097,
      "Ġvier": 4098,
      "iversity": 4099,
      "urf": 4100,
      "Ġasked": 4101,
      "ĠSa": 4102,
      "ĠSpra": 4103,
      "Ġpriority": 4104,
      "cke": 4105,
      "arch": 4106,
      "ledge": 4107,
      "Ġexcellent": 4108,
      "ĠDok": 4109,
      "zufÃ": 4110,
      "handlung": 4111,
      "rgern": 4112,
      "peten": 4113,
      "riften": 4114,
      "ĠInitiative": 4115,
      "Ġmeisten": 4116,
      "let": 4117,
      "sprechen": 4118,
      "Ġunserem": 4119,
      "iveness": 4120,
      "Ġlangu": 4121,
      "ĠzusÃ¤tz": 4122,
      "schlieÃŁlich": 4123,
      "Ġarbeiten": 4124,
      "folgt": 4125,
      "ĠPe": 4126,
      "ending": 4127,
      "Ġetwa": 4128,
      "ĠVereinbar": 4129,
      "Ġzuf": 4130,
      "ĠProgramme": 4131,
      "ĠGewalt": 4132,
      "Therefore": 4133,
      "stag": 4134,
      "ĠPortug": 4135,
      "Ġcompromise": 4136,
      "Ġsoziale": 4137,
      "atast": 4138,
      "Ġcut": 4139,
      "ĠMitglieder": 4140,
      "Ġlegislative": 4141,
      "Ġtop": 4142,
      "verb": 4143,
      "ustom": 4144,
      "ĠOct": 4145,
      "ietet": 4146,
      "bel": 4147,
      "ĠAg": 4148,
      "sehen": 4149,
      "Ġconcl": 4150,
      "ĠBrit": 4151,
      "Ã¤ter": 4152,
      "best": 4153,
      "Ġtry": 4154,
      "ĠSitzung": 4155,
      "Ġnuclear": 4156,
      "ichen": 4157,
      "alten": 4158,
      "Ġtechnical": 4159,
      "Ġsaying": 4160,
      "Ġtook": 4161,
      "Ġanything": 4162,
      "Ġalong": 4163,
      "ĠPosition": 4164,
      "ĠÃ¤uÃŁerst": 4165,
      "hend": 4166,
      "onnen": 4167,
      "cklich": 4168,
      "ither": 4169,
      "ĠNor": 4170,
      "Ġtransparen": 4171,
      "ipp": 4172,
      "ĠSache": 4173,
      "haupt": 4174,
      "Ġchanges": 4175,
      "Ġreview": 4176,
      "Ġclosed": 4177,
      "ĠPra": 4178,
      "ller": 4179,
      "chter": 4180,
      "Ġmess": 4181,
      "verstÃ¤ndlich": 4182,
      "ID": 4183,
      "ysteme": 4184,
      "iers": 4185,
      "ĠVorschriften": 4186,
      "Gen": 4187,
      "sitz": 4188,
      "ĠChrist": 4189,
      "haus": 4190,
      "igungs": 4191,
      "Ġlearn": 4192,
      "Ġfisher": 4193,
      "Ġangemessen": 4194,
      "Ġstress": 4195,
      "itÃ¤ts": 4196,
      "utzung": 4197,
      "selves": 4198,
      "Ġforeign": 4199,
      "mitteln": 4200,
      "ĠTra": 4201,
      "ĠArbeitspl": 4202,
      "Hey": 4203,
      "ĠMÃ¤n": 4204,
      "ĠGemeinschafts": 4205,
      "Ġbenefit": 4206,
      "Ġsetzen": 4207,
      "Ġeveryone": 4208,
      "greifen": 4209,
      "ief": 4210,
      "atisf": 4211,
      "hern": 4212,
      "FR": 4213,
      "tended": 4214,
      "ĠVolk": 4215,
      "nschen": 4216,
      "Ġbeh": 4217,
      "Ġumfassen": 4218,
      "arenz": 4219,
      "Ġcr": 4220,
      "Ġfunding": 4221,
      "ĠKlima": 4222,
      "bÃ": 4223,
      "Ġbeginn": 4224,
      "Ġcorre": 4225,
      "ĠAuffassung": 4226,
      "setz": 4227,
      "Ġconv": 4228,
      "Zweit": 4229,
      "orr": 4230,
      "Ġregarding": 4231,
      "ison": 4232,
      "Ġcent": 4233,
      "unities": 4234,
      "ĠSh": 4235,
      "Ġground": 4236,
      "ĠPlan": 4237,
      "Ġwider": 4238,
      "Ġrequired": 4239,
      "Ġoblig": 4240,
      "schlag": 4241,
      "onse": 4242,
      "Ġlive": 4243,
      "Ġregards": 4244,
      "Ġcriter": 4245,
      "ton": 4246,
      "ĠStaats": 4247,
      "ĠSchul": 4248,
      "Ġx": 4249,
      "Ġebenso": 4250,
      "schriftlich": 4251,
      "Nein": 4252,
      "ĠtatsÃ¤chlich": 4253,
      "Ġdisp": 4254,
      "ĠAusschusses": 4255,
      "AuÃŁerdem": 4256,
      "ficient": 4257,
      "ĠII": 4258,
      "itting": 4259,
      "ĠGroÃŁ": 4260,
      "ĠDiskussion": 4261,
      "zember": 4262,
      "kauf": 4263,
      "gu": 4264,
      "ume": 4265,
      "rgerinnen": 4266,
      "Ġfacil": 4267,
      "Ġcommitment": 4268,
      "Ġtalking": 4269,
      "Ġsustainable": 4270,
      "Ġnutzen": 4271,
      "reiche": 4272,
      "Ġaltern": 4273,
      "ĠRechn": 4274,
      "ald": 4275,
      "Ġinteress": 4276,
      "weil": 4277,
      "leben": 4278,
      "ĠWes": 4279,
      "Ġvalue": 4280,
      "luÃŁ": 4281,
      "maÃŁnahmen": 4282,
      "tel": 4283,
      "Ġface": 4284,
      "ĠMiss": 4285,
      "Ġperhaps": 4286,
      "Ġelse": 4287,
      "arbeitet": 4288,
      "teile": 4289,
      "ĠÃľberein": 4290,
      "mitted": 4291,
      "Ġgrundlegen": 4292,
      "reten": 4293,
      "Ġfal": 4294,
      "ĠRis": 4295,
      "ulture": 4296,
      "ĠDies": 4297,
      "ĠWasser": 4298,
      "Doch": 4299,
      "Ġpractice": 4300,
      "lies": 4301,
      "Ġeth": 4302,
      "Ġexperience": 4303,
      "Ġcongratulate": 4304,
      "ĠHandels": 4305,
      "ĠProtokoll": 4306,
      "ĠpersÃ": 4307,
      "ĠErklÃ¤rung": 4308,
      "Ġsy": 4309,
      "liches": 4310,
      "Ġhold": 4311,
      "Ġpromote": 4312,
      "Ġindic": 4313,
      "omb": 4314,
      "Ġrad": 4315,
      "ires": 4316,
      "kommens": 4317,
      "Ġlabour": 4318,
      "AS": 4319,
      "Ġvorgesehen": 4320,
      "Ġmarkets": 4321,
      "pf": 4322,
      "ĠEinfÃ": 4323,
      "Ġagenda": 4324,
      "ĠSocial": 4325,
      "Ġinfl": 4326,
      "Ġresponse": 4327,
      "Ġvalues": 4328,
      "atastrop": 4329,
      "imension": 4330,
      "ĠErfahr": 4331,
      "Ġnormal": 4332,
      "Ġgab": 4333,
      "stellt": 4334,
      "istic": 4335,
      "Ġtradition": 4336,
      "ums": 4337,
      "ĠbefÃ": 4338,
      "pris": 4339,
      "ctors": 4340,
      "Ġagreed": 4341,
      "Ġbetroffen": 4342,
      "Ġintegration": 4343,
      "ĠIran": 4344,
      "ĠFolgen": 4345,
      "zeichnet": 4346,
      "Ġavo": 4347,
      "Ġconsumer": 4348,
      "Ġeither": 4349,
      "ĠTransparenz": 4350,
      "werk": 4351,
      "wendet": 4352,
      "loyment": 4353,
      "Ã¤ndert": 4354,
      "Ġgovernments": 4355,
      "Ġapplication": 4356,
      "Ã¤us": 4357,
      "struments": 4358,
      "istischen": 4359,
      "body": 4360,
      "ĠBemÃ": 4361,
      "Ġmodern": 4362,
      "Ġforder": 4363,
      "olution": 4364,
      "Ġsubsid": 4365,
      "Ġleben": 4366,
      "ĠSub": 4367,
      "Ġdiscussion": 4368,
      "ĠThemen": 4369,
      "Ġwr": 4370,
      "Ġdeterm": 4371,
      "ĠDecember": 4372,
      "Ġanalys": 4373,
      "Ġfive": 4374,
      "Ġgesamten": 4375,
      "Ġheld": 4376,
      "Ġintegr": 4377,
      "Ġsex": 4378,
      "olid": 4379,
      "ĠConvention": 4380,
      "glied": 4381,
      "ĠGeneral": 4382,
      "Ġdifferen": 4383,
      "Ġwollte": 4384,
      "Ġbleibt": 4385,
      "Ġmass": 4386,
      "Ġsolidarity": 4387,
      "Ġeigentlich": 4388,
      "Ġdest": 4389,
      "riffen": 4390,
      "Ġrefle": 4391,
      "Ġdanke": 4392,
      "ĠPunkte": 4393,
      "lant": 4394,
      "Ġgebracht": 4395,
      "hre": 4396,
      "Ġaspects": 4397,
      "indet": 4398,
      "Ġverbessern": 4399,
      "langen": 4400,
      "ush": 4401,
      "eiter": 4402,
      "formen": 4403,
      "Ġexisting": 4404,
      "anted": 4405,
      "Ist": 4406,
      "Zweitens": 4407,
      "Ġprovisions": 4408,
      "Ġourselves": 4409,
      "uellen": 4410,
      "Secondly": 4411,
      "ĠFehl": 4412,
      "Zu": 4413,
      "Ġlist": 4414,
      "Ġdeath": 4415,
      "Ġpoor": 4416,
      "Ġobvious": 4417,
      "ĠAngelegenheit": 4418,
      "assung": 4419,
      "ĠTod": 4420,
      "Ġpm": 4421,
      "ennung": 4422,
      "Ġcarried": 4423,
      "auen": 4424,
      "lieÃŁen": 4425,
      "Ġpleased": 4426,
      "hm": 4427,
      "ĠChar": 4428,
      "Ġwait": 4429,
      "Ġtransparency": 4430,
      "More": 4431,
      "Ġsour": 4432,
      "agraph": 4433,
      "ĠSolidar": 4434,
      "Ġitem": 4435,
      "Ġmovement": 4436,
      "Ġhour": 4437,
      "Ġeinges": 4438,
      "ritts": 4439,
      "lker": 4440,
      "inne": 4441,
      "rang": 4442,
      "Ġside": 4443,
      "Nun": 4444,
      "ĠWill": 4445,
      "Ġjoin": 4446,
      "Ġliegen": 4447,
      "Ġfunktion": 4448,
      "Ġwegen": 4449,
      "Ġweltw": 4450,
      "Ġappear": 4451,
      "Ġkonnte": 4452,
      "Ġpotential": 4453,
      "Ġmechan": 4454,
      "ĠEntscheidungen": 4455,
      "aden": 4456,
      "ĠEntschlieÃŁungs": 4457,
      "ĠRaum": 4458,
      "Ġjem": 4459,
      "Ġalthough": 4460,
      "Ġtraining": 4461,
      "Ġcarry": 4462,
      "Ġprakt": 4463,
      "Ġmag": 4464,
      "ĠUkra": 4465,
      "ĠeuropÃ¤ischer": 4466,
      "ĠIhrer": 4467,
      "ĠBas": 4468,
      "ĠSektor": 4469,
      "sicherheit": 4470,
      "rieben": 4471,
      "ĠEl": 4472,
      "Ġactions": 4473,
      "ĠRegierungen": 4474,
      "ĠgroÃŁer": 4475,
      "nig": 4476,
      "Ġgesehen": 4477,
      "arent": 4478,
      "Ġsense": 4479,
      "berw": 4480,
      "Ġviews": 4481,
      "ĠhÃ¤tten": 4482,
      "lling": 4483,
      "ilfen": 4484,
      "Am": 4485,
      "ĠzunÃ¤chst": 4486,
      "Ġschle": 4487,
      "Ġdut": 4488,
      "minister": 4489,
      "ook": 4490,
      "ĠUnd": 4491,
      "ĠRede": 4492,
      "ai": 4493,
      "ĠJune": 4494,
      "ublik": 4495,
      "ĠInstrument": 4496,
      "Ġhinter": 4497,
      "uter": 4498,
      "legation": 4499,
      "Ġcontribution": 4500,
      "Ġtotal": 4501,
      "Ġheard": 4502,
      "missions": 4503,
      "ĠAgrar": 4504,
      "Ġseek": 4505,
      "Ġimmedi": 4506,
      "ĠWoche": 4507,
      "ĠVertra": 4508,
      "stead": 4509,
      "ĠLin": 4510,
      "Ġwrong": 4511,
      "Ġsolchen": 4512,
      "Ġnature": 4513,
      "Ġbank": 4514,
      "Ġintens": 4515,
      "Ġbeteil": 4516,
      "Ġvoting": 4517,
      "ĠLuft": 4518,
      "izien": 4519,
      "ĠGree": 4520,
      "gungen": 4521,
      "igte": 4522,
      "ĠKonfl": 4523,
      "Office": 4524,
      "kennen": 4525,
      "seit": 4526,
      "Ġrequirements": 4527,
      "angt": 4528,
      "ĠDruck": 4529,
      "Ġdev": 4530,
      "ĠArbeitnehmer": 4531,
      "ĠVertrags": 4532,
      "ĠZeitpunkt": 4533,
      "Ġwirtschaftliche": 4534,
      "ĠgewÃ¤hrleisten": 4535,
      "Ġdanger": 4536,
      "Ġstimmen": 4537,
      "Ġillegal": 4538,
      "Ġbeha": 4539,
      "Ġallein": 4540,
      "heben": 4541,
      "Ġprocedures": 4542,
      "ilateral": 4543,
      "Damit": 4544,
      "bildung": 4545,
      "ĠAnsatz": 4546,
      "Ġzeigt": 4547,
      "ĠErzeug": 4548,
      "ĠWettbewerb": 4549,
      "ĠGr": 4550,
      "Also": 4551,
      "ĠTat": 4552,
      "ract": 4553,
      "gebracht": 4554,
      "ĠGefahr": 4555,
      "Ġwanted": 4556,
      "Ġsuffer": 4557,
      "Ġbietet": 4558,
      "ption": 4559,
      "vors": 4560,
      "nissen": 4561,
      "Zum": 4562,
      "Ġcolleagues": 4563,
      "Ġcrucial": 4564,
      "ured": 4565,
      "isiert": 4566,
      "utzt": 4567,
      "AP": 4568,
      "Ġlooking": 4569,
      "ĠIntegration": 4570,
      "Ġinvestment": 4571,
      "Ġflo": 4572,
      "samen": 4573,
      "Ġcommunication": 4574,
      "ĠMai": 4575,
      "ĠDezember": 4576,
      "Ġbasic": 4577,
      "ĠMus": 4578,
      "Ġleave": 4579,
      "Wer": 4580,
      "entlichen": 4581,
      "Ã¤rken": 4582,
      "ĠAbsatz": 4583,
      "Ġzeigen": 4584,
      "ĠHotel": 4585,
      "ĠJa": 4586,
      "Ġverantwort": 4587,
      "Ġinternationale": 4588,
      "ĠEinz": 4589,
      "gebung": 4590,
      "pite": 4591,
      "ĠAktion": 4592,
      "ĠBild": 4593,
      "ĠOrgan": 4594,
      "ĠRats": 4595,
      "nern": 4596,
      "Ġacross": 4597,
      "Ġrelig": 4598,
      "ktober": 4599,
      "amer": 4600,
      "PL": 4601,
      "Ġcamp": 4602,
      "Ġpopulation": 4603,
      "Pres": 4604,
      "atÃ": 4605,
      "orry": 4606,
      "Ġstage": 4607,
      "Ġrelation": 4608,
      "ots": 4609,
      "ĠRechtsvorschriften": 4610,
      "Ġcriteria": 4611,
      "Ġmilitary": 4612,
      "Ġregulations": 4613,
      "ĠJuni": 4614,
      "Ġgele": 4615,
      "will": 4616,
      "merksamkeit": 4617,
      "Ġwarum": 4618,
      "legenheiten": 4619,
      "wÃ¤": 4620,
      "Ġmer": 4621,
      "Viel": 4622,
      "Ġtrying": 4623,
      "raf": 4624,
      "lain": 4625,
      "cep": 4626,
      "Ġbrought": 4627,
      "plan": 4628,
      "ĠGipf": 4629,
      "Ġofficial": 4630,
      "ekte": 4631,
      "son": 4632,
      "pected": 4633,
      "Ġgleichzeitig": 4634,
      "ĠJanuary": 4635,
      "ĠAufmerksamkeit": 4636,
      "ĠLie": 4637,
      "ĠGerman": 4638,
      "Ġbar": 4639,
      "aging": 4640,
      "Ġthus": 4641,
      "hesion": 4642,
      "orten": 4643,
      "Ġsorgen": 4644,
      "Von": 4645,
      "ĠDritt": 4646,
      "Ġprice": 4647,
      "geln": 4648,
      "lÃ¤ss": 4649,
      "ĠPer": 4650,
      "Ġweiteren": 4651,
      "Ġbzw": 4652,
      "Ġbekommen": 4653,
      "ĠTechnolog": 4654,
      "Ġheut": 4655,
      "Dann": 4656,
      "ibe": 4657,
      "ĠStadt": 4658,
      "ĠProdukt": 4659,
      "Ġdad": 4660,
      "ĠDr": 4661,
      "Ġspielen": 4662,
      "ĠAusschuÃŁ": 4663,
      "enk": 4664,
      "mehr": 4665,
      "sterdam": 4666,
      "ĠDu": 4667,
      "overty": 4668,
      "nehm": 4669,
      "Ġoutside": 4670,
      "unch": 4671,
      "Ġtragen": 4672,
      "Ġmaterial": 4673,
      "Ġurg": 4674,
      "Okay": 4675,
      "hem": 4676,
      "Ġleisten": 4677,
      "ĠSy": 4678,
      "Ġgenommen": 4679,
      "Ġpage": 4680,
      "ĠQualitÃ¤t": 4681,
      "Ġassistance": 4682,
      "ĠProjekt": 4683,
      "Ġsuggest": 4684,
      "ĠlÃ": 4685,
      "oto": 4686,
      "Ġviolence": 4687,
      "ourn": 4688,
      "Ġpressure": 4689,
      "kraft": 4690,
      "ĠRights": 4691,
      "formations": 4692,
      "Ġhouse": 4693,
      "Ġeuch": 4694,
      "fg": 4695,
      "ĠerhÃ": 4696,
      "ingt": 4697,
      "Ġunterb": 4698,
      "Ġfell": 4699,
      "Ġattack": 4700,
      "Ġdidn": 4701,
      "Ġsatisf": 4702,
      "ĠBestimmungen": 4703,
      "Ġcross": 4704,
      "Ġelections": 4705,
      "Ġincreased": 4706,
      "PE": 4707,
      "hindern": 4708,
      "uk": 4709,
      "conomic": 4710,
      "Ġvol": 4711,
      "Ġbroad": 4712,
      "ieht": 4713,
      "zeigt": 4714,
      "Ġsieht": 4715,
      "inden": 4716,
      "heim": 4717,
      "cksicht": 4718,
      "Ġword": 4719,
      "ĠSchluss": 4720,
      "Ã¤st": 4721,
      "Ġcustom": 4722,
      "ĠgemÃ¤ÃŁ": 4723,
      "Ã¤hlen": 4724,
      "Ġerheb": 4725,
      "ĠMarch": 4726,
      "ĠNord": 4727,
      "Ġpresented": 4728,
      "ĠBrÃ": 4729,
      "Wo": 4730,
      "ĠFlÃ": 4731,
      "Ġliberal": 4732,
      "Alle": 4733,
      "iste": 4734,
      "Ġwesentlich": 4735,
      "Ġthroughout": 4736,
      "ĠZus": 4737,
      "ĠAustr": 4738,
      "ilung": 4739,
      "ails": 4740,
      "ype": 4741,
      "ĠDa": 4742,
      "Ġbetreffen": 4743,
      "rench": 4744,
      "rief": 4745,
      "Ġtraff": 4746,
      "isieren": 4747,
      "Ġfordern": 4748,
      "ĠAmendment": 4749,
      "Ġdocument": 4750,
      "Ġleider": 4751,
      "ĠvollstÃ¤nd": 4752,
      "Ġdecided": 4753,
      "ĠFreiheit": 4754,
      "Ġrepe": 4755,
      "ization": 4756,
      "Artikel": 4757,
      "Ġversuchen": 4758,
      "reiten": 4759,
      "ĠTagesordnung": 4760,
      "aly": 4761,
      "ĠAmsterdam": 4762,
      "lare": 4763,
      "ĠVÃ": 4764,
      "Ġvergessen": 4765,
      "gesamt": 4766,
      "Ġdoubt": 4767,
      "Ġsix": 4768,
      "Warum": 4769,
      "Ġbel": 4770,
      "icien": 4771,
      "Ġexam": 4772,
      "Ġcame": 4773,
      "Ã¤tigkeit": 4774,
      "ĠVolks": 4775,
      "ĠOrt": 4776,
      "Ġwichtiger": 4777,
      "ĠGeschichte": 4778,
      "Ġreceived": 4779,
      "sequences": 4780,
      "Ġaccording": 4781,
      "lad": 4782,
      "Ġunseres": 4783,
      "Ġerster": 4784,
      "splan": 4785,
      "Ġprepared": 4786,
      "cksichtigt": 4787,
      "schuld": 4788,
      "ĠSc": 4789,
      "Ġconsequences": 4790,
      "ĠHo": 4791,
      "Ġliving": 4792,
      "ĠbenÃ": 4793,
      "ĠRussland": 4794,
      "Ġtold": 4795,
      "Ġbad": 4796,
      "oph": 4797,
      "Ġgetroffen": 4798,
      "Ġassoc": 4799,
      "Ġbi": 4800,
      "Ġstability": 4801,
      "Ġremember": 4802,
      "Ġscheint": 4803,
      "Ġlos": 4804,
      "ĠEmpfehl": 4805,
      "ĠOctober": 4806,
      "idd": 4807,
      "Ob": 4808,
      "Ġprices": 4809,
      "Ġaufgenommen": 4810,
      "ng": 4811,
      "jekte": 4812,
      "Of": 4813,
      "Ġcompletely": 4814,
      "uz": 4815,
      "ĠNationen": 4816,
      "Ber": 4817,
      "ĠSec": 4818,
      "Ġkleinen": 4819,
      "ĠViel": 4820,
      "Ġincluded": 4821,
      "cel": 4822,
      "DarÃ": 4823,
      "Ġbeitragen": 4824,
      "fghan": 4825,
      "ulgar": 4826,
      "que": 4827,
      "rachte": 4828,
      "ĠJu": 4829,
      "ĠGott": 4830,
      "Ġeffects": 4831,
      "EL": 4832,
      "ĠSicht": 4833,
      "Further": 4834,
      "Ġhonour": 4835,
      "por": 4836,
      "fect": 4837,
      "Ġcommunity": 4838,
      "Ġquickly": 4839,
      "Ġrule": 4840,
      "Ġcreation": 4841,
      "ĠKoh": 4842,
      "ream": 4843,
      "Ġbehind": 4844,
      "mand": 4845,
      "ana": 4846,
      "Ġbalance": 4847,
      "Ġexport": 4848,
      "Ġcultural": 4849,
      "Ġred": 4850,
      "EP": 4851,
      "ienste": 4852,
      "ĠUkraine": 4853,
      "ĠVorsitz": 4854,
      "Ġverab": 4855,
      "Ã¤hlt": 4856,
      "Ġwaste": 4857,
      "ania": 4858,
      "ĠSchiff": 4859,
      "wertung": 4860,
      "ifel": 4861,
      "Ġfarmers": 4862,
      "Ġtrotz": 4863,
      "Ġgee": 4864,
      "ĠdurchgefÃ": 4865,
      "ĠFun": 4866,
      "Ġorganisations": 4867,
      "Ġganze": 4868,
      "Ġnote": 4869,
      "lemented": 4870,
      "Unsere": 4871,
      "Ġpurs": 4872,
      "ĠPrÃ¤sidenten": 4873,
      "Ġaccession": 4874,
      "ipl": 4875,
      "Ġjedem": 4876,
      "Ġvergangenen": 4877,
      "standen": 4878,
      "fu": 4879,
      "ĠCo": 4880,
      "Ġinstruments": 4881,
      "sprozess": 4882,
      "fil": 4883,
      "Ġemer": 4884,
      "Ġpoverty": 4885,
      "Ġdirection": 4886,
      "ĠLandes": 4887,
      "Ġtreatment": 4888,
      "Ġamount": 4889,
      "Ġspez": 4890,
      "Ġhalf": 4891,
      "ĠBerichterstatterin": 4892,
      "ĠLebensmittel": 4893,
      "enntnis": 4894,
      "Ġsl": 4895,
      "bersch": 4896,
      "ĠPreis": 4897,
      "test": 4898,
      "Ġdate": 4899,
      "Ġelectr": 4900,
      "Ġterrorism": 4901,
      "erve": 4902,
      "lauf": 4903,
      "ourcen": 4904,
      "ĠOktober": 4905,
      "ĠFinanzierung": 4906,
      "Ġalmost": 4907,
      "Ġprepar": 4908,
      "idel": 4909,
      "erner": 4910,
      "arbeitung": 4911,
      "Ġattemp": 4912,
      "Where": 4913,
      "ex": 4914,
      "ĠAnstren": 4915,
      "Ġarg": 4916,
      "Ġtakes": 4917,
      "abkommen": 4918,
      "Ġzweite": 4919,
      "Ġopportunities": 4920,
      "ĠFrance": 4921,
      "Ġgewesen": 4922,
      "Ġreduce": 4923,
      "ernen": 4924,
      "Ġundert": 4925,
      "Ġvorgelegt": 4926,
      "App": 4927,
      "ĠSolidaritÃ¤t": 4928,
      "eff": 4929,
      "Ġfil": 4930,
      "just": 4931,
      "Ġtask": 4932,
      "ones": 4933,
      "ĠWochen": 4934,
      "ĠTerrorismus": 4935,
      "Ã¤nden": 4936,
      "ĠSchwier": 4937,
      "onn": 4938,
      "Ġclar": 4939,
      "berhaupt": 4940,
      "ĠWorld": 4941,
      "Ġpow": 4942,
      "Ġeffekt": 4943,
      "Ġgefunden": 4944,
      "uelle": 4945,
      "Ġestablished": 4946,
      "Ġhighl": 4947,
      "Ġheart": 4948,
      "Ġwon": 4949,
      "ĠLeg": 4950,
      "ĠNatur": 4951,
      "Ġfehl": 4952,
      "Ġhappened": 4953,
      "abel": 4954,
      "ĠCO": 4955,
      "erweise": 4956,
      "Ġkm": 4957,
      "ĠMÃ¤rz": 4958,
      "Ġreached": 4959,
      "Ġgewor": 4960,
      "anced": 4961,
      "Ġcompany": 4962,
      "ork": 4963,
      "organisation": 4964,
      "Ġthanks": 4965,
      "ning": 4966,
      "Ġevents": 4967,
      "Ġlater": 4968,
      "Ġenable": 4969,
      "geschlossen": 4970,
      "ĠKompromiss": 4971,
      "Ġdringend": 4972,
      "isc": 4973,
      "ĠBelg": 4974,
      "ĠBerlin": 4975,
      "Ġspee": 4976,
      "ired": 4977,
      "Ġfunction": 4978,
      "gth": 4979,
      "ĠThis": 4980,
      "ĠEinsatz": 4981,
      "Ġrelevant": 4982,
      "Ġdead": 4983,
      "hnung": 4984,
      "Ġexch": 4985,
      "uchen": 4986,
      "Ġverste": 4987,
      "vorsitz": 4988,
      "Ġmach": 4989,
      "Ġlevels": 4990,
      "Ġconsult": 4991,
      "Ġimprovement": 4992,
      "ĠPrinzip": 4993,
      "After": 4994,
      "ĠWahr": 4995,
      "Ġinstrument": 4996,
      "ĠKop": 4997,
      "ĠAntrag": 4998,
      "Ġguten": 4999,
      "riminal": 5000,
      "trÃ¤gen": 5001,
      "ĠunabhÃ¤ng": 5002,
      "Ġscient": 5003,
      "Ġcapital": 5004,
      "tell": 5005,
      "Ġbecom": 5006,
      "Ġraised": 5007,
      "Ġkeiner": 5008,
      "iglich": 5009,
      "ĠSeiten": 5010,
      "ĠBildung": 5011,
      "ĠArmut": 5012,
      "President": 5013,
      "Ġcause": 5014,
      "ĠLeit": 5015,
      "ffentlichkeit": 5016,
      "Ġtreffen": 5017,
      "bern": 5018,
      "Ġexcept": 5019,
      "Ġnatural": 5020,
      "Ġbestimmte": 5021,
      "etary": 5022,
      "Ex": 5023,
      "apan": 5024,
      "ko": 5025,
      "ighbour": 5026,
      "Ġlove": 5027,
      "istr": 5028,
      "pekt": 5029,
      "zub": 5030,
      "atic": 5031,
      "reib": 5032,
      "urt": 5033,
      "ĠPak": 5034,
      "Ġsus": 5035,
      "ĠOpfer": 5036,
      "inter": 5037,
      "Ġsepar": 5038,
      "ziehung": 5039,
      "Ġfishing": 5040,
      "ĠAuss": 5041,
      "ĠKoordin": 5042,
      "Ġadditional": 5043,
      "ĠMenschenrechts": 5044,
      "engen": 5045,
      "ĠDon": 5046,
      "ĠGed": 5047,
      "Ġverbunden": 5048,
      "Ġtabled": 5049,
      "scht": 5050,
      "Ġequal": 5051,
      "Ġplease": 5052,
      "uern": 5053,
      "Ġmut": 5054,
      "ĠBeteil": 5055,
      "ele": 5056,
      "wes": 5057,
      "Ġthreat": 5058,
      "theless": 5059,
      "ĠGod": 5060,
      "ĠzustÃ¤nd": 5061,
      "ĠFrench": 5062,
      "dom": 5063,
      "stitutional": 5064,
      "tent": 5065,
      "denken": 5066,
      "Ġsufficient": 5067,
      "unt": 5068,
      "ĠMor": 5069,
      "Ġbehandelt": 5070,
      "xis": 5071,
      "Ġaffect": 5072,
      "ĠDeutschland": 5073,
      "Ġeingehen": 5074,
      "Ġpersonal": 5075,
      "where": 5076,
      "legung": 5077,
      "Ġunemp": 5078,
      "ĠGerichts": 5079,
      "By": 5080,
      "Ġeinzige": 5081,
      "the": 5082,
      "ĠspÃ¤ter": 5083,
      "ĠÃĦnderungen": 5084,
      "strumente": 5085,
      "ĠHinsicht": 5086,
      "Ġerinnern": 5087,
      "ĠNational": 5088,
      "ĠUntersuch": 5089,
      "ends": 5090,
      "ij": 5091,
      "ĠIniti": 5092,
      "teilen": 5093,
      "zeugt": 5094,
      "ĠGar": 5095,
      "Ġvertreten": 5096,
      "ĠJanuar": 5097,
      "Ġten": 5098,
      "ĠBalk": 5099,
      "acy": 5100,
      "bedingungen": 5101,
      "Ġdom": 5102,
      "ĠÃĸffentlichkeit": 5103,
      "gewiesen": 5104,
      "forms": 5105,
      "Lassen": 5106,
      "ĠRegeln": 5107,
      "ĠMinder": 5108,
      "reland": 5109,
      "Ġlediglich": 5110,
      "ĠStabilitÃ¤t": 5111,
      "Ġvital": 5112,
      "Ġextra": 5113,
      "Ġlow": 5114,
      "ging": 5115,
      "Ġangesichts": 5116,
      "ĠBen": 5117,
      "Ġord": 5118,
      "Ġfig": 5119,
      "rechend": 5120,
      "Ġcorrect": 5121,
      "ĠerÃ": 5122,
      "ĠSchengen": 5123,
      "Some": 5124,
      "jahr": 5125,
      "Ġzug": 5126,
      "Ġtechnology": 5127,
      "ĠWhat": 5128,
      "uted": 5129,
      "Ġkonzentr": 5130,
      "ĠGesundheits": 5131,
      "Ġendlich": 5132,
      "ĠPrÃ¤": 5133,
      "ĠInformations": 5134,
      "Ġziehen": 5135,
      "Not": 5136,
      "gelt": 5137,
      "ktr": 5138,
      "Ġregret": 5139,
      "Ġeindeutig": 5140,
      "ĠWissen": 5141,
      "ays": 5142,
      "Don": 5143,
      "Ġeinheit": 5144,
      "Ġgleichen": 5145,
      "ĠKrieg": 5146,
      "grÃ": 5147,
      "ĠGÃ": 5148,
      "ĠGrenzen": 5149,
      "Ġabsolutely": 5150,
      "ĠjÃ": 5151,
      "tragen": 5152,
      "ĠKl": 5153,
      "serv": 5154,
      "ĠBemerk": 5155,
      "Ġlegit": 5156,
      "Ġdemonstr": 5157,
      "orning": 5158,
      "umer": 5159,
      "Ġexact": 5160,
      "teilt": 5161,
      "ĠKle": 5162,
      "ĠAspekte": 5163,
      "Ġmyself": 5164,
      "Ġconflict": 5165,
      "Unter": 5166,
      "Ġparagraph": 5167,
      "Ġrelating": 5168,
      "arily": 5169,
      "anzen": 5170,
      "ĠDurchfÃ": 5171,
      "Ġgenug": 5172,
      "ĠDo": 5173,
      "Ġpriorities": 5174,
      "ĠAnstrengungen": 5175,
      "NatÃ": 5176,
      "Ġobwohl": 5177,
      "Ġexternal": 5178,
      "zulegen": 5179,
      "Ġplann": 5180,
      "ĠEinwander": 5181,
      "wie": 5182,
      "bank": 5183,
      "ĠMitgliedstaat": 5184,
      "Ġmodel": 5185,
      "Ġknown": 5186,
      "acity": 5187,
      "Ġsitting": 5188,
      "Ġgerne": 5189,
      "ĠenthÃ¤lt": 5190,
      "Ġbody": 5191,
      "hrten": 5192,
      "ĠMonaten": 5193,
      "inger": 5194,
      "fordern": 5195,
      "Ġpen": 5196,
      "Ġgrat": 5197,
      "Ġmax": 5198,
      "Ġnight": 5199,
      "Reg": 5200,
      "ÃŁten": 5201,
      "ĠStelle": 5202,
      "Ġign": 5203,
      "Ġdise": 5204,
      "Ġangesprochen": 5205,
      "ĠbezÃ": 5206,
      "ĠSum": 5207,
      "Ġprofit": 5208,
      "Ġpackage": 5209,
      "usion": 5210,
      "Ġprob": 5211,
      "ĠMo": 5212,
      "Ġprim": 5213,
      "nftig": 5214,
      "hrer": 5215,
      "orgung": 5216,
      "ients": 5217,
      "ĠProdukte": 5218,
      "Ġmessage": 5219,
      "Ġban": 5220,
      "ĠStrateg": 5221,
      "Ġversucht": 5222,
      "Ġcohesion": 5223,
      "berg": 5224,
      "Ġimplemented": 5225,
      "rogen": 5226,
      "Ġsound": 5227,
      "Ġgiving": 5228,
      "Ġill": 5229,
      "Ġcreated": 5230,
      "zeichne": 5231,
      "setzungen": 5232,
      "ĠstÃ¤rker": 5233,
      "stoff": 5234,
      "Ġalone": 5235,
      "iner": 5236,
      "behÃ": 5237,
      "AbschlieÃŁend": 5238,
      "ĠPrÃ": 5239,
      "Ġbeant": 5240,
      "Ġrene": 5241,
      "Ġshown": 5242,
      "aur": 5243,
      "ĠstÃ¤nd": 5244,
      "Ãľber": 5245,
      "ature": 5246,
      "bung": 5247,
      "ĠImp": 5248,
      "Ġmonitoring": 5249,
      "ĠVertreter": 5250,
      "ĠKern": 5251,
      "Ġexpressed": 5252,
      "Ġinitiatives": 5253,
      "Jetzt": 5254,
      "Ġeffort": 5255,
      "Ġport": 5256,
      "iciency": 5257,
      "ĠSchwierigkeiten": 5258,
      "Ã¤rkt": 5259,
      "Ġschool": 5260,
      "Ġpowers": 5261,
      "Ġlog": 5262,
      "Ġstimme": 5263,
      "Ġgesamte": 5264,
      "ufe": 5265,
      "head": 5266,
      "pid": 5267,
      "Ġcentral": 5268,
      "Ġbesten": 5269,
      "Ġbudgetary": 5270,
      "Ġcritic": 5271,
      "itation": 5272,
      "Ġproceed": 5273,
      "ĠEinzel": 5274,
      "Ã¤ss": 5275,
      "arus": 5276,
      "rwor": 5277,
      "Ġsolutions": 5278,
      "AL": 5279,
      "ĠWert": 5280,
      "Ġknowledge": 5281,
      "Ġrecently": 5282,
      "Gleich": 5283,
      "Ġfrei": 5284,
      "auern": 5285,
      "ĠbestÃ¤t": 5286,
      "Ġtype": 5287,
      "ĠAnnahme": 5288,
      "Ġwobei": 5289,
      "Ġdiscrimin": 5290,
      "ĠEast": 5291,
      "Ġunbed": 5292,
      "Me": 5293,
      "Ġbieten": 5294,
      "alien": 5295,
      "sungen": 5296,
      "Ġbrit": 5297,
      "ĠSpe": 5298,
      "Ġevalu": 5299,
      "Ġbur": 5300,
      "Ġdeveloped": 5301,
      "Ġreality": 5302,
      "Ġgoes": 5303,
      "Ġconsidered": 5304,
      "ĠMark": 5305,
      "ĠInvestitionen": 5306,
      "orre": 5307,
      "ĠSinne": 5308,
      "ĠAktiv": 5309,
      "Ġgeworden": 5310,
      "ĠRepublic": 5311,
      "Ġavoid": 5312,
      "Ġsent": 5313,
      "Ġweder": 5314,
      "ĠIreland": 5315,
      "Ġwichtigsten": 5316,
      "kret": 5317,
      "ÃŁte": 5318,
      "Ġgeschaffen": 5319,
      "ape": 5320,
      "Ġapplied": 5321,
      "Ġtransparent": 5322,
      "Ã¤mpfen": 5323,
      "Ġvisit": 5324,
      "ĠAfghan": 5325,
      "ĠNicht": 5326,
      "ĠLiberal": 5327,
      "ĠParty": 5328,
      "Ġcrime": 5329,
      "Ġverhindern": 5330,
      "zeugen": 5331,
      "Ġaccordance": 5332,
      "ĠBeih": 5333,
      "sh": 5334,
      "wogen": 5335,
      "Ġsw": 5336,
      "ĠIhren": 5337,
      "Durch": 5338,
      "ande": 5339,
      "Ġsupported": 5340,
      "ĠX": 5341,
      "iter": 5342,
      "Ġchallenges": 5343,
      "Ġhistory": 5344,
      "ĠprÃ": 5345,
      "Ġhinweisen": 5346,
      "Ġreading": 5347,
      "ĠMacht": 5348,
      "Ġanderer": 5349,
      "Ġcircum": 5350,
      "este": 5351,
      "ental": 5352,
      "Ġbedeut": 5353,
      "Ġbeginning": 5354,
      "ĠDirective": 5355,
      "lease": 5356,
      "nftigen": 5357,
      "geleg": 5358,
      "ĠtÃ": 5359,
      "Ġkrit": 5360,
      "Ġglauben": 5361,
      "Ġoffens": 5362,
      "ĠbeschÃ¤ft": 5363,
      "rok": 5364,
      "Ġremains": 5365,
      "Sh": 5366,
      "sÃ¤tze": 5367,
      "schÃ": 5368,
      "Ġstay": 5369,
      "cksichtigen": 5370,
      "ino": 5371,
      "Ġdirekt": 5372,
      "Ġtele": 5373,
      "Ġallowed": 5374,
      "ĠSk": 5375,
      "li": 5376,
      "ĠAgenda": 5377,
      "Ġactive": 5378,
      "ĠGu": 5379,
      "Ġrecord": 5380,
      "Ġconstit": 5381,
      "ĠPriv": 5382,
      "ĠArbeitsplÃ¤tze": 5383,
      "Ġverstehen": 5384,
      "ĠLes": 5385,
      "Ġremind": 5386,
      "Ġrestrict": 5387,
      "Ġvictims": 5388,
      "Ġcandid": 5389,
      "ĠAfrica": 5390,
      "lam": 5391,
      "zusch": 5392,
      "Ġsagt": 5393,
      "Ġconclusion": 5394,
      "Ġtour": 5395,
      "statt": 5396,
      "Ġself": 5397,
      "Ġfellow": 5398,
      "ĠAnfang": 5399,
      "Ġnamely": 5400,
      "ience": 5401,
      "ĠDokument": 5402,
      "ĠNA": 5403,
      "Ġlisten": 5404,
      "Ġjedes": 5405,
      "ĠFortsch": 5406,
      "Ġnah": 5407,
      "Fraktion": 5408,
      "Ġmorning": 5409,
      "here": 5410,
      "Ġcontact": 5411,
      "Ġaccep": 5412,
      "ĠInnov": 5413,
      "Ġmedium": 5414,
      "odell": 5415,
      "Ġconnection": 5416,
      "ĠBritish": 5417,
      "EU": 5418,
      "Ġdadurch": 5419,
      "teilung": 5420,
      "Ġtest": 5421,
      "Ġbeschlossen": 5422,
      "ibilities": 5423,
      "Last": 5424,
      "ĠLeute": 5425,
      "Ġefficient": 5426,
      "Ġbald": 5427,
      "Nicht": 5428,
      "Ġcondu": 5429,
      "Ġadvant": 5430,
      "ienten": 5431,
      "losigkeit": 5432,
      "ĠJuly": 5433,
      "aktor": 5434,
      "Ġtut": 5435,
      "Ġage": 5436,
      "Nur": 5437,
      "Ġwhose": 5438,
      "brigen": 5439,
      "artet": 5440,
      "icles": 5441,
      "ĠJuli": 5442,
      "emb": 5443,
      "istische": 5444,
      "ĠBulgar": 5445,
      "Ġjede": 5446,
      "ĠConference": 5447,
      "MU": 5448,
      "Ġanzu": 5449,
      "Ġerneut": 5450,
      "Furthermore": 5451,
      "Ġgoods": 5452,
      "ĠVertrauen": 5453,
      "Ġfinally": 5454,
      "Ġbegin": 5455,
      "ĠFamilien": 5456,
      "Ġgerecht": 5457,
      "Ġsupply": 5458,
      "velopment": 5459,
      "rehens": 5460,
      "Mitglied": 5461,
      "ilar": 5462,
      "wise": 5463,
      "ĠRess": 5464,
      "Ġdirectly": 5465,
      "OR": 5466,
      "Ġreden": 5467,
      "Ġfreue": 5468,
      "ĠAngelegenheiten": 5469,
      "Ġcontent": 5470,
      "ĠKommun": 5471,
      "ĠVerpflichtungen": 5472,
      "ba": 5473,
      "Ġjustice": 5474,
      "bringen": 5475,
      "Ġlives": 5476,
      "gerungen": 5477,
      "ĠParteien": 5478,
      "industrie": 5479,
      "izienz": 5480,
      "Ġrenew": 5481,
      "Ġspir": 5482,
      "Ġdeep": 5483,
      "fahrens": 5484,
      "Ġparty": 5485,
      "Ġrespond": 5486,
      "ĠFreund": 5487,
      "Ġverm": 5488,
      "tze": 5489,
      "Ġmeasure": 5490,
      "pendent": 5491,
      "Ã¤ngen": 5492,
      "ĠChance": 5493,
      "ĠAM": 5494,
      "mission": 5495,
      "etimes": 5496,
      "Ġreferred": 5497,
      "etze": 5498,
      "ugs": 5499,
      "Ġgesprochen": 5500,
      "Ġrail": 5501,
      "Erstens": 5502,
      "ĠFrankreich": 5503,
      "Ġem": 5504,
      "Ġweak": 5505,
      "ournal": 5506,
      "ĠPalest": 5507,
      "Ġdiejenigen": 5508,
      "Ġdiscussed": 5509,
      "Ġship": 5510,
      "ffentliche": 5511,
      "Ġbitten": 5512,
      "Ã¤sst": 5513,
      "iete": 5514,
      "Ġerwarten": 5515,
      "Ġprovides": 5516,
      "Ġinvestig": 5517,
      "Ġextent": 5518,
      "Ġweg": 5519,
      "ished": 5520,
      "Ġzweiten": 5521,
      "Ġey": 5522,
      "Ġunge": 5523,
      "Ġbetonen": 5524,
      "Ġleaders": 5525,
      "Ġappe": 5526,
      "lack": 5527,
      "ari": 5528,
      "roat": 5529,
      "ĠauÃŁerdem": 5530,
      "ckwÃ": 5531,
      "Ġapart": 5532,
      "Are": 5533,
      "wahl": 5534,
      "ĠCentral": 5535,
      "ĠTier": 5536,
      "Ġgenu": 5537,
      "Ġborders": 5538,
      "Ġehr": 5539,
      "hoben": 5540,
      "Ġpractical": 5541,
      "Ġeasy": 5542,
      "ected": 5543,
      "Ġmis": 5544,
      "oot": 5545,
      "hilfe": 5546,
      "ĠhÃ¤uf": 5547,
      "ĠHause": 5548,
      "Ġbuilding": 5549,
      "Ġoil": 5550,
      "uche": 5551,
      "eks": 5552,
      "ĠÃĦnderung": 5553,
      "ĠÃ¤ndern": 5554,
      "Ġneighbour": 5555,
      "Ġpartnership": 5556,
      "Ġergreifen": 5557,
      "ufact": 5558,
      "ously": 5559,
      "Ġdemokratischen": 5560,
      "Ġhuge": 5561,
      "handel": 5562,
      "Ġliebe": 5563,
      "Ġganzen": 5564,
      "ĠAbgeordnete": 5565,
      "ĠZivil": 5566,
      "Ġcompetit": 5567,
      "erran": 5568,
      "greement": 5569,
      "Ġentwickeln": 5570,
      "Con": 5571,
      "inner": 5572,
      "ĠHung": 5573,
      "forderung": 5574,
      "Ġapproved": 5575,
      "ona": 5576,
      "Ġwonder": 5577,
      "ĠSouth": 5578,
      "fence": 5579,
      "ĠFrei": 5580,
      "hagen": 5581,
      "gehend": 5582,
      "trie": 5583,
      "iko": 5584,
      "Ġletzte": 5585,
      "Ġbessere": 5586,
      "Ġaw": 5587,
      "Ġwants": 5588,
      "ĠBelarus": 5589,
      "Ġveh": 5590,
      "rats": 5591,
      "Ġperform": 5592,
      "ontroll": 5593,
      "ĠLux": 5594,
      "Ġsan": 5595,
      "Ġobtain": 5596,
      "ĠPlen": 5597,
      "ival": 5598,
      "Ġabst": 5599,
      "Parliament": 5600,
      "Yeah": 5601,
      "rec": 5602,
      "ategor": 5603,
      "ior": 5604,
      "rab": 5605,
      "zusetzen": 5606,
      "fallen": 5607,
      "Yes": 5608,
      "ĠWohl": 5609,
      "ĠDienstleistungen": 5610,
      "ĠBetrie": 5611,
      "ĠWÃ": 5612,
      "Ġsuccessful": 5613,
      "ĠIraq": 5614,
      "ĠBeitritts": 5615,
      "Ġrichtige": 5616,
      "ĠschlieÃŁlich": 5617,
      "ĠKonferenz": 5618,
      "Ġokay": 5619,
      "osen": 5620,
      "iterran": 5621,
      "ĠStaat": 5622,
      "erdings": 5623,
      "ĠWie": 5624,
      "Ġpurpose": 5625,
      "achtet": 5626,
      "Ġconfirm": 5627,
      "ĠEntschlieÃŁungsantrag": 5628,
      "Ġderart": 5629,
      "cause": 5630,
      "Just": 5631,
      "PT": 5632,
      "ausch": 5633,
      "ĠRegierungs": 5634,
      "Ġsectors": 5635,
      "ierenden": 5636,
      "Article": 5637,
      "ĠBef": 5638,
      "ĠKriterien": 5639,
      "iddle": 5640,
      "entliche": 5641,
      "sy": 5642,
      "Ã¤rkung": 5643,
      "ĠGlobal": 5644,
      "Ġsays": 5645,
      "ikanischen": 5646,
      "itel": 5647,
      "tes": 5648,
      "ox": 5649,
      "Ġinsgesamt": 5650,
      "ĠVerfassung": 5651,
      "rÃ¤fte": 5652,
      "ĠFischerei": 5653,
      "Ġagriculture": 5654,
      "isely": 5655,
      "ĠTour": 5656,
      "Ġthous": 5657,
      "ĠOn": 5658,
      "Ġpossibility": 5659,
      "Ġakzeptieren": 5660,
      "Ġinfluen": 5661,
      "Ġtyp": 5662,
      "Ġdeta": 5663,
      "esterday": 5664,
      "ED": 5665,
      "schw": 5666,
      "Ġgenannten": 5667,
      "ĠRatsvorsitz": 5668,
      "buch": 5669,
      "Ġdescr": 5670,
      "ĠGrundsatz": 5671,
      "ĠArg": 5672,
      "Ġet": 5673,
      "ĠSelbst": 5674,
      "Ġreforms": 5675,
      "liz": 5676,
      "Ġcapacity": 5677,
      "Ġmor": 5678,
      "ĠVerwendung": 5679,
      "ĠRepublik": 5680,
      "Ġassessment": 5681,
      "system": 5682,
      "ynam": 5683,
      "handen": 5684,
      "sper": 5685,
      "Ġindustrial": 5686,
      "Ġkonnten": 5687,
      "wenden": 5688,
      "Ġdiscussions": 5689,
      "Ġbeein": 5690,
      "ological": 5691,
      "mann": 5692,
      "Ġgetting": 5693,
      "Ġmotion": 5694,
      "Ġsend": 5695,
      "chtung": 5696,
      "schlieÃŁen": 5697,
      "ĠAgreement": 5698,
      "ĠPortugal": 5699,
      "ĠBot": 5700,
      "Ġdiv": 5701,
      "ĠFÃ¤llen": 5702,
      "Ġlimit": 5703,
      "schaftlichen": 5704,
      "Ġcomments": 5705,
      "idelines": 5706,
      "ĠMitteilung": 5707,
      "ĠBehandlung": 5708,
      "Ġcircumst": 5709,
      "Ġbear": 5710,
      "Ġzer": 5711,
      "ocation": 5712,
      "fangen": 5713,
      "Ġgere": 5714,
      "ĠerwÃ¤hnt": 5715,
      "Ġcle": 5716,
      "Ġweeks": 5717,
      "Ġneu": 5718,
      "ĠJugend": 5719,
      "nftige": 5720,
      "Ġfear": 5721,
      "tigen": 5722,
      "Ġearly": 5723,
      "ĠStellungnahme": 5724,
      "Ġzumindest": 5725,
      "ĠGeschÃ¤ftsordnung": 5726,
      "Sp": 5727,
      "Ġneuer": 5728,
      "vere": 5729,
      "Ġhappy": 5730,
      "ax": 5731,
      "mark": 5732,
      "glicht": 5733,
      "Ġauthor": 5734,
      "Ġimmigration": 5735,
      "Ġbestimmten": 5736,
      "action": 5737,
      "ĠIm": 5738,
      "Ġpresidency": 5739,
      "ĠVerÃ¤nder": 5740,
      "Ġclass": 5741,
      "Ġdarstellt": 5742,
      "erkennung": 5743,
      "Ġsummit": 5744,
      "zwe": 5745,
      "ĠDemoc": 5746,
      "acter": 5747,
      "di": 5748,
      "nungs": 5749,
      "Ġencourage": 5750,
      "Since": 5751,
      "Ġstandard": 5752,
      "Ġbusinesses": 5753,
      "Ġfisheries": 5754,
      "gesellschaft": 5755,
      "nsche": 5756,
      "ĠEff": 5757,
      "ĠVerteid": 5758,
      "ighted": 5759,
      "Ġadministrative": 5760,
      "met": 5761,
      "Ġrepresentatives": 5762,
      "Vielleicht": 5763,
      "Ġunbedingt": 5764,
      "ĠWahlen": 5765,
      "rem": 5766,
      "Ġerzielt": 5767,
      "aufen": 5768,
      "Ġwiederhol": 5769,
      "rahmen": 5770,
      "Ġsea": 5771,
      "Ġconfidence": 5772,
      "ĠlÃ¤nd": 5773,
      "Ġsimilar": 5774,
      "Ġsechs": 5775,
      "Then": 5776,
      "ĠÃľberwach": 5777,
      "ĠHaltung": 5778,
      "trÃ¤cht": 5779,
      "Ġlanguage": 5780,
      "val": 5781,
      "Ġenj": 5782,
      "ussels": 5783,
      "ĠNations": 5784,
      "cker": 5785,
      "Unser": 5786,
      "Ġprovision": 5787,
      "aper": 5788,
      "accept": 5789,
      "Every": 5790,
      "Ġshows": 5791,
      "Ġsinn": 5792,
      "Ġlok": 5793,
      "Wel": 5794,
      "Ġspre": 5795,
      "ĠSport": 5796,
      "ĠMont": 5797,
      "Ġculture": 5798,
      "Ġready": 5799,
      "Ġhoffen": 5800,
      "Ġjeweil": 5801,
      "bourg": 5802,
      "SchlieÃŁlich": 5803,
      "atal": 5804,
      "ĠlÃ¤sst": 5805,
      "ĠKing": 5806,
      "icherung": 5807,
      "Ġkleine": 5808,
      "Ġduty": 5809,
      "ĠAnerkennung": 5810,
      "Ġoccas": 5811,
      "ames": 5812,
      "Ġoptim": 5813,
      "berzeugt": 5814,
      "ĠJapan": 5815,
      "ĠGesprÃ¤": 5816,
      "Ġlik": 5817,
      "cement": 5818,
      "zeichnung": 5819,
      "Ġaffected": 5820,
      "feld": 5821,
      "eschrÃ¤n": 5822,
      "Ġtemp": 5823,
      "unsch": 5824,
      "Ġcircumstances": 5825,
      "Ġbeide": 5826,
      "Ġrate": 5827,
      "Ġsubstant": 5828,
      "ĠHerausforderungen": 5829,
      "Ġworth": 5830,
      "Ġunaccept": 5831,
      "Ġgekommen": 5832,
      "uption": 5833,
      "Ġreference": 5834,
      "Ġhours": 5835,
      "Ġreceive": 5836,
      "Ġpolice": 5837,
      "Ġpaar": 5838,
      "iten": 5839,
      "load": 5840,
      "hab": 5841,
      "ane": 5842,
      "Ġzunehmen": 5843,
      "Vielen": 5844,
      "Tod": 5845,
      "ĠVereinbarung": 5846,
      "Ġumgesetzt": 5847,
      "ĠDes": 5848,
      "Ġtack": 5849,
      "Ġcoordination": 5850,
      "ression": 5851,
      "wesen": 5852,
      "Meiner": 5853,
      "European": 5854,
      "Ġzehn": 5855,
      "anner": 5856,
      "Ġbefinden": 5857,
      "ĠEre": 5858,
      "Ġentschieden": 5859,
      "Ġnegative": 5860,
      "ĠBeitritt": 5861,
      "schlossen": 5862,
      "meer": 5863,
      "rifft": 5864,
      "Ġanders": 5865,
      "ĠKenntnis": 5866,
      "Ġspezie": 5867,
      "Ġdistrib": 5868,
      "Ġprobably": 5869,
      "iterranean": 5870,
      "Your": 5871,
      "ĠEinfl": 5872,
      "Ġways": 5873,
      "udge": 5874,
      "Ġlangfrist": 5875,
      "Ġstructural": 5876,
      "Ġchallenge": 5877,
      "Firstly": 5878,
      "Ġsorry": 5879,
      "Ġcontr": 5880,
      "Ġcity": 5881,
      "Ġreag": 5882,
      "quate": 5883,
      "Ihr": 5884,
      "Ġminutes": 5885,
      "frastruct": 5886,
      "Ġrecon": 5887,
      "ĠAgentur": 5888,
      "stant": 5889,
      "Ġefficiency": 5890,
      "Ġstudy": 5891,
      "ĠWettbewerbsfÃ¤higkeit": 5892,
      "entwick": 5893,
      "Ġgas": 5894,
      "ĠWider": 5895,
      "orgt": 5896,
      "ĠRoma": 5897,
      "roso": 5898,
      "ette": 5899,
      "Ġfestgelegt": 5900,
      "Ġsofort": 5901,
      "ube": 5902,
      "May": 5903,
      "Ġproduc": 5904,
      "Ġgefordert": 5905,
      "Ġwid": 5906,
      "Ġdecide": 5907,
      "Ġnimmt": 5908,
      "ĠServ": 5909,
      "ftware": 5910,
      "Ġmanufact": 5911,
      "ĠBrussels": 5912,
      "Ġnear": 5913,
      "fÃ¤lle": 5914,
      "Heute": 5915,
      "raten": 5916,
      "ĠeinschlieÃŁlich": 5917,
      "achte": 5918,
      "enhagen": 5919,
      "Ġgir": 5920,
      "Ġkulture": 5921,
      "Ġscope": 5922,
      "ĠWohn": 5923,
      "ĠWaffen": 5924,
      "Ġfinanziellen": 5925,
      "Ã¤ngt": 5926,
      "cco": 5927,
      "Ġexactly": 5928,
      "tag": 5929,
      "Ġtool": 5930,
      "Allerdings": 5931,
      "Ġaccepted": 5932,
      "Ad": 5933,
      "last": 5934,
      "Ġgern": 5935,
      "ĠbemÃ": 5936,
      "Ġvorher": 5937,
      "Ġparts": 5938,
      "ĠDevelopment": 5939,
      "freiheit": 5940,
      "reifen": 5941,
      "ales": 5942,
      "krise": 5943,
      "stimm": 5944,
      "Ġextens": 5945,
      "ĠEinigung": 5946,
      "Dabei": 5947,
      "ada": 5948,
      "Ġunacceptable": 5949,
      "icy": 5950,
      "oses": 5951,
      "Ġstatus": 5952,
      "Ġrelationship": 5953,
      "letzt": 5954,
      "Ġcheck": 5955,
      "bor": 5956,
      "Ġpassen": 5957,
      "Ġsonst": 5958,
      "Ġkonkrete": 5959,
      "Ġexchange": 5960,
      "ĠEreign": 5961,
      "barkeit": 5962,
      "ichtlich": 5963,
      "Ġuner": 5964,
      "Ġcreating": 5965,
      "Here": 5966,
      "UN": 5967,
      "ĠPrioritÃ¤ten": 5968,
      "Ġreject": 5969,
      "Ã¤her": 5970,
      "hunder": 5971,
      "Ġcal": 5972,
      "Ġfragen": 5973,
      "Ġalternative": 5974,
      "Ġbillion": 5975,
      "sterreich": 5976,
      "De": 5977,
      "wirken": 5978,
      "amb": 5979,
      "ĠAbend": 5980,
      "Ġsicherzustellen": 5981,
      "Ġpub": 5982,
      "ĠVergangen": 5983,
      "ĠGemeinsamen": 5984,
      "Ġcode": 5985,
      "ĠAufgaben": 5986,
      "Ġbewusst": 5987,
      "ager": 5988,
      "Ġfirm": 5989,
      "ulieren": 5990,
      "Ġsteps": 5991,
      "ĠForderung": 5992,
      "rung": 5993,
      "Ġadded": 5994,
      "Seit": 5995,
      "ureau": 5996,
      "Ġobserv": 5997,
      "Ġmedia": 5998,
      "len": 5999,
      "jÃ¤hr": 6000,
      "Ġthinking": 6001,
      "Ġindependent": 6002,
      "ylum": 6003,
      "Ġmensch": 6004,
      "Can": 6005,
      "ahren": 6006,
      "ĠRegelung": 6007,
      "EC": 6008,
      "Ġforget": 6009,
      "ĠLinie": 6010,
      "iable": 6011,
      "yond": 6012,
      "ĠReformen": 6013,
      "ĠWerte": 6014,
      "Ġlost": 6015,
      "ĠNieder": 6016,
      "ĠECU": 6017,
      "gere": 6018,
      "Today": 6019,
      "Ġfran": 6020,
      "Ġgezeigt": 6021,
      "ony": 6022,
      "ley": 6023,
      "Ġcalls": 6024,
      "rÃ¤sent": 6025,
      "ĠVergangenheit": 6026,
      "ĠGlÃ": 6027,
      "Ġforms": 6028,
      "ĠOrd": 6029,
      "prises": 6030,
      "iedr": 6031,
      "Ã¤tzen": 6032,
      "US": 6033,
      "ĠverÃ": 6034,
      "Ġverschiedene": 6035,
      "aat": 6036,
      "ĠRessourcen": 6037,
      "Ġinstead": 6038,
      "Ġinfrastruct": 6039,
      "Ġkill": 6040,
      "ĠAmerican": 6041,
      "ĠFamilie": 6042,
      "ĠHinter": 6043,
      "Ġuntern": 6044,
      "ĠVerkehrs": 6045,
      "Ġanimal": 6046,
      "ĠPraxis": 6047,
      "Ġbenefits": 6048,
      "ÃŁere": 6049,
      "ĠLandwir": 6050,
      "Ġeffectively": 6051,
      "achsen": 6052,
      "ender": 6053,
      "ĠAber": 6054,
      "ĠBerichte": 6055,
      "ĠHoff": 6056,
      "Ġrepla": 6057,
      "ĠSorge": 6058,
      "bezogen": 6059,
      "Ġguidelines": 6060,
      "Ġsomit": 6061,
      "ĠGeorg": 6062,
      "Ġdifficulties": 6063,
      "ites": 6064,
      "rÃ¤gt": 6065,
      "ĠÃ¤hn": 6066,
      "Ġrequires": 6067,
      "Ġbringt": 6068,
      "Ġtarge": 6069,
      "rotz": 6070,
      "Ġarm": 6071,
      "ĠAfghanistan": 6072,
      "Ġgeleistet": 6073,
      "Ġverme": 6074,
      "falt": 6075,
      "ĠWel": 6076,
      "ĠNachbar": 6077,
      "Ġchance": 6078,
      "ĠVereinten": 6079,
      "ĠLat": 6080,
      "itude": 6081,
      "Ġunemployment": 6082,
      "ĠBuch": 6083,
      "oke": 6084,
      "Ġdagegen": 6085,
      "Ġeingesetzt": 6086,
      "Ġexerc": 6087,
      "Ġtrust": 6088,
      "Ġtim": 6089,
      "Ġrefuge": 6090,
      "Ġarran": 6091,
      "Ġprecisely": 6092,
      "ĠerklÃ¤rt": 6093,
      "scheinlich": 6094,
      "Ġplans": 6095,
      "Ġoffers": 6096,
      "ĠNr": 6097,
      "ĠAusfÃ": 6098,
      "ĠRo": 6099,
      "Ġmand": 6100,
      "Ġbraucht": 6101,
      "Ġerk": 6102,
      "ĠVersuch": 6103,
      "Ġdank": 6104,
      "ĠMeth": 6105,
      "Ġcommitted": 6106,
      "Ġnationale": 6107,
      "ĠKom": 6108,
      "ĠZustimmung": 6109,
      "annte": 6110,
      "Ġforces": 6111,
      "Ġklare": 6112,
      "Ġbreak": 6113,
      "ĠRichtlinien": 6114,
      "Ġhumanitarian": 6115,
      "ĠFil": 6116,
      "Ġenorm": 6117,
      "anten": 6118,
      "Ġseriously": 6119,
      "ĠFehler": 6120,
      "sichtig": 6121,
      "Ġsele": 6122,
      "Ġvorhanden": 6123,
      "otes": 6124,
      "ĠSchwe": 6125,
      "richtungen": 6126,
      "ĠNutzung": 6127,
      "zieht": 6128,
      "ĠMeer": 6129,
      "Ġperfect": 6130,
      "nigreich": 6131,
      "Ġcol": 6132,
      "Ġreduction": 6133,
      "Ġpaid": 6134,
      "ĠMinutes": 6135,
      "schiede": 6136,
      "lang": 6137,
      "Ġbook": 6138,
      "Ġsport": 6139,
      "ĠHoch": 6140,
      "ĠBereiche": 6141,
      "otels": 6142,
      "Ġperspect": 6143,
      "Ġcommer": 6144,
      "Will": 6145,
      "iated": 6146,
      "Ġemissions": 6147,
      "Ġca": 6148,
      "riechen": 6149,
      "ĠwÃ¤ren": 6150,
      "ĠStÃ": 6151,
      "ĠTransport": 6152,
      "Ã¤stin": 6153,
      "yr": 6154,
      "Ġcontribute": 6155,
      "Ġdiskutieren": 6156,
      "Ġcompetitiveness": 6157,
      "Ġeher": 6158,
      "Ġsicherlich": 6159,
      "ĠTrans": 6160,
      "Ġanimals": 6161,
      "Ġtw": 6162,
      "Ġcriminal": 6163,
      "Ġinstitutional": 6164,
      "pret": 6165,
      "laufen": 6166,
      "Ġconsist": 6167,
      "Ã¤mt": 6168,
      "konferenz": 6169,
      "ĠNein": 6170,
      "Ġregime": 6171,
      "ara": 6172,
      "Ġhigher": 6173,
      "odies": 6174,
      "afft": 6175,
      "vo": 6176,
      "Ġheutigen": 6177,
      "ĠInitiativen": 6178,
      "ĠKre": 6179,
      "ĠAmerica": 6180,
      "Ġcomplex": 6181,
      "Ġminimum": 6182,
      "ĠAnt": 6183,
      "ĠSchlÃ": 6184,
      "pflich": 6185,
      "Ġgives": 6186,
      "Ġclosely": 6187,
      "ama": 6188,
      "Ġwirksam": 6189,
      "Ġerfolgreich": 6190,
      "Ġgeschehen": 6191,
      "hle": 6192,
      "ĠHuman": 6193,
      "ifically": 6194,
      "ĠNATO": 6195,
      "ĠPflicht": 6196,
      "amber": 6197,
      "ĠselbstverstÃ¤ndlich": 6198,
      "ounts": 6199,
      "Ġcontract": 6200,
      "frastruktur": 6201,
      "ĠFebruary": 6202,
      "ĠMedien": 6203,
      "Ġparliamentary": 6204,
      "ball": 6205,
      "ipt": 6206,
      "Ġoperation": 6207,
      "ĠCan": 6208,
      "ĠOrganisationen": 6209,
      "ĠLeist": 6210,
      "Ġintegrat": 6211,
      "Ġnetwork": 6212,
      "olz": 6213,
      "ĠRev": 6214,
      "nitt": 6215,
      "Ġstaff": 6216,
      "Ġgarant": 6217,
      "ulierung": 6218,
      "Ġuseful": 6219,
      "nungen": 6220,
      "ĠOb": 6221,
      "Ġtravel": 6222,
      "Ġverwendet": 6223,
      "rdert": 6224,
      "polit": 6225,
      "Ġproduce": 6226,
      "ondon": 6227,
      "Ġentsprechenden": 6228,
      "Ġproviding": 6229,
      "Ġactivity": 6230,
      "Ġdealing": 6231,
      "Ġpoll": 6232,
      "Ġbrief": 6233,
      "richten": 6234,
      "ĠPartnerschaft": 6235,
      "Ġgain": 6236,
      "renzÃ": 6237,
      "Ġvorliegenden": 6238,
      "rep": 6239,
      "Ġbeyond": 6240,
      "Ġdespite": 6241,
      "ĠVerwaltung": 6242,
      "Ġanti": 6243,
      "tig": 6244,
      "Ġcondem": 6245,
      "endit": 6246,
      "AC": 6247,
      "Ġauthority": 6248,
      "bericht": 6249,
      "Ġspeech": 6250,
      "Str": 6251,
      "ille": 6252,
      "Ġverpflich": 6253,
      "Ġhighly": 6254,
      "ĠLesung": 6255,
      "Ġful": 6256,
      "ĠSerb": 6257,
      "Ġconsideration": 6258,
      "From": 6259,
      "Ġsort": 6260,
      "ĠBeginn": 6261,
      "bezÃ": 6262,
      "Ġkennen": 6263,
      "jected": 6264,
      "Ġasylum": 6265,
      "Ã¤stinens": 6266,
      "uded": 6267,
      "Ġensuring": 6268,
      "Ġsage": 6269,
      "ĠVerbindung": 6270,
      "Ġjemand": 6271,
      "Ġeffiz": 6272,
      "ĠKonflikt": 6273,
      "Ġbeginnen": 6274,
      "letz": 6275,
      "ierter": 6276,
      "ifall": 6277,
      "Ġadap": 6278,
      "Ġcomprehens": 6279,
      "Ġinnovation": 6280,
      "conds": 6281,
      "Ġkam": 6282,
      "ĠStimme": 6283,
      "Ġconclusions": 6284,
      "Ch": 6285,
      "Ġhonourable": 6286,
      "ĠstÃ": 6287,
      "ĠKommissions": 6288,
      "Ġoffice": 6289,
      "ĠItaly": 6290,
      "Ġborder": 6291,
      "Ġearl": 6292,
      "Ġentwickelt": 6293,
      "Ġscientific": 6294,
      "za": 6295,
      "ĠDrogen": 6296,
      "istics": 6297,
      "ocol": 6298,
      "ĠAspekt": 6299,
      "aign": 6300,
      "Ġdeine": 6301,
      "Ġhandeln": 6302,
      "Ġentsprechend": 6303,
      "hib": 6304,
      "Ġcounter": 6305,
      "ĠbÃ": 6306,
      "ĠbeglÃ": 6307,
      "ĠCar": 6308,
      "ĠZweifel": 6309,
      "Ġmob": 6310,
      "spe": 6311,
      "die": 6312,
      "indern": 6313,
      "ĠAnzahl": 6314,
      "ĠWaren": 6315,
      "Never": 6316,
      "front": 6317,
      "Ġadoption": 6318,
      "Ġdiscrimination": 6319,
      "berprÃ": 6320,
      "Ġseconds": 6321,
      "rete": 6322,
      "ĠInstrumente": 6323,
      "folge": 6324,
      "igungen": 6325,
      "fle": 6326,
      "ĠWorte": 6327,
      "Europe": 6328,
      "Ġverurteil": 6329,
      "Ġconsiderable": 6330,
      "Ġconcept": 6331,
      "Ġaud": 6332,
      "unkten": 6333,
      "ĠIdee": 6334,
      "Ġzufrieden": 6335,
      "Ġcombat": 6336,
      "gy": 6337,
      "Ġune": 6338,
      "ĠArz": 6339,
      "Ġbestehenden": 6340,
      "ĠVerwaltungs": 6341,
      "ĠNahr": 6342,
      "Ġbill": 6343,
      "lock": 6344,
      "ĠFolge": 6345,
      "ĠMutter": 6346,
      "ÃŁer": 6347,
      "Ġgenerated": 6348,
      "Ġdipl": 6349,
      "Ġformer": 6350,
      "ĠComp": 6351,
      "Ġweltweit": 6352,
      "lause": 6353,
      "ĠOh": 6354,
      "Ã¤ne": 6355,
      "Ġtar": 6356,
      "Ġsimple": 6357,
      "Ġfront": 6358,
      "Ġcharacter": 6359,
      "Ã¤cht": 6360,
      "ĠMc": 6361,
      "Ġmehrere": 6362,
      "Ġihres": 6363,
      "Ġhol": 6364,
      "ritte": 6365,
      "Ġdefence": 6366,
      "Ġwent": 6367,
      "uly": 6368,
      "Ġcurren": 6369,
      "used": 6370,
      "ĠKrank": 6371,
      "Ġautomat": 6372,
      "Ġoverall": 6373,
      "ĠDan": 6374,
      "Ġris": 6375,
      "unternehmen": 6376,
      "halte": 6377,
      "Ġkil": 6378,
      "ĠSprache": 6379,
      "ĠhÃ¤ufig": 6380,
      "Ġfinde": 6381,
      "Ġallgemeinen": 6382,
      "gra": 6383,
      "Ġexclus": 6384,
      "oden": 6385,
      "ĠItalien": 6386,
      "ĠfranzÃ": 6387,
      "ungsver": 6388,
      "Ġdisapp": 6389,
      "zy": 6390,
      "Ġdeclar": 6391,
      "Ġschwierig": 6392,
      "sto": 6393,
      "reichend": 6394,
      "Ġlimited": 6395,
      "leitet": 6396,
      "uber": 6397,
      "ĠProjekte": 6398,
      "ĠausdrÃ": 6399,
      "bernehmen": 6400,
      "ĠZe": 6401,
      "ĠKlimawand": 6402,
      "ĠZentral": 6403,
      "Ġsometimes": 6404,
      "ĠPalestin": 6405,
      "ĠWest": 6406,
      "ĠZw": 6407,
      "ĠZustÃ¤nd": 6408,
      "ĠvernÃ": 6409,
      "Ġerschein": 6410,
      "sequently": 6411,
      "Ġreserv": 6412,
      "ĠWÃ¤hrung": 6413,
      "ops": 6414,
      "arth": 6415,
      "works": 6416,
      "ulations": 6417,
      "ense": 6418,
      "iate": 6419,
      "Ġstated": 6420,
      "ikation": 6421,
      "Ġapprec": 6422,
      "Ġchoice": 6423,
      "Ġcampaign": 6424,
      "ĠAktivitÃ¤ten": 6425,
      "aktion": 6426,
      "Unfortunately": 6427,
      "ĠBlick": 6428,
      "Ġrecognis": 6429,
      "Ġprofess": 6430,
      "Ġlate": 6431,
      "Dem": 6432,
      "Ġrightly": 6433,
      "Ġsafegu": 6434,
      "ĠThat": 6435,
      "Ġcalling": 6436,
      "ĠRegulation": 6437,
      "iell": 6438,
      "Ġchem": 6439,
      "Ġdi": 6440,
      "Ġmitt": 6441,
      "Ã¤nge": 6442,
      "Ġsimpl": 6443,
      "Ġrapid": 6444,
      "ĠeingefÃ": 6445,
      "Ġjen": 6446,
      "Ġwom": 6447,
      "Ġhingewiesen": 6448,
      "itable": 6449,
      "Ġrange": 6450,
      "eg": 6451,
      "ĠPolize": 6452,
      "orpor": 6453,
      "Ġaimed": 6454,
      "haben": 6455,
      "ĠPa": 6456,
      "Ġko": 6457,
      "Who": 6458,
      "Ġdocuments": 6459,
      "Ġreflect": 6460,
      "Ġdeliver": 6461,
      "Ġimplementing": 6462,
      "ĠzukÃ": 6463,
      "Ġcm": 6464,
      "riminierung": 6465,
      "Ġstarted": 6466,
      "Ġdig": 6467,
      "Ġbodies": 6468,
      "ĠTele": 6469,
      "itzen": 6470,
      "Ġignor": 6471,
      "Ġspeed": 6472,
      "Ġverpflichtet": 6473,
      "Ġyesterday": 6474,
      "Ġbetrachte": 6475,
      "KÃ": 6476,
      "Ġvere": 6477,
      "ĠAbsicht": 6478,
      "af": 6479,
      "Ġunmittel": 6480,
      "Ġdenken": 6481,
      "Ġauszu": 6482,
      "Ġurgent": 6483,
      "vert": 6484,
      "Ġsehe": 6485,
      "Ġcomment": 6486,
      "Ġpassiert": 6487,
      "ĠMand": 6488,
      "ifizierung": 6489,
      "ini": 6490,
      "Ġfeststellen": 6491,
      "ĠGriechen": 6492,
      "Ġparticipation": 6493,
      "Ġfriends": 6494,
      "Ġterritor": 6495,
      "Ġintended": 6496,
      "Ġentgegen": 6497,
      "sych": 6498,
      "Ġunfortunately": 6499,
      "Ġspezif": 6500,
      "Ġherr": 6501,
      "LA": 6502,
      "Ġsetting": 6503,
      "Ġtown": 6504,
      "ued": 6505,
      "Ġblock": 6506,
      "ĠKatastrop": 6507,
      "gelegten": 6508,
      "Ġcoll": 6509,
      "ilden": 6510,
      "ĠLondon": 6511,
      "Ġanalysis": 6512,
      "Ġmist": 6513,
      "aby": 6514,
      "Ġfinanzielle": 6515,
      "ĠursprÃ": 6516,
      "Ġproperly": 6517,
      "ĠAbschluss": 6518,
      "Look": 6519,
      "Ġcompeten": 6520,
      "Ġlar": 6521,
      "spekt": 6522,
      "Ġpropose": 6523,
      "Ġproduced": 6524,
      "ehm": 6525,
      "Ġgave": 6526,
      "Ġbesondere": 6527,
      "Ġkosten": 6528,
      "resp": 6529,
      "Ġneues": 6530,
      "Ġenterprises": 6531,
      "Ġged": 6532,
      "berein": 6533,
      "Ġcaused": 6534,
      "Ġexper": 6535,
      "esten": 6536,
      "Ġextend": 6537,
      "ĠErklÃ¤rungen": 6538,
      "Come": 6539,
      "urance": 6540,
      "rated": 6541,
      "lÃ¤gen": 6542,
      "Ġspeaking": 6543,
      "Ġmedic": 6544,
      "Ġeigene": 6545,
      "itial": 6546,
      "Ha": 6547,
      "vorschlag": 6548,
      "Ġanerk": 6549,
      "icking": 6550,
      "rf": 6551,
      "ĠPlatz": 6552,
      "endence": 6553,
      "brig": 6554,
      "ĠmilitÃ¤r": 6555,
      "upp": 6556,
      "ĠProf": 6557,
      "Leider": 6558,
      "Ġahead": 6559,
      "Moreover": 6560,
      "va": 6561,
      "stre": 6562,
      "Ġade": 6563,
      "ĠWenn": 6564,
      "Ġstaat": 6565,
      "oup": 6566,
      "ĠYork": 6567,
      "Ġfloor": 6568,
      "Ã¤um": 6569,
      "glicherweise": 6570,
      "prÃ¤sident": 6571,
      "ierende": 6572,
      "Ġasking": 6573,
      "Member": 6574,
      "Ġtransfer": 6575,
      "Ġrural": 6576,
      "ĠGipfel": 6577,
      "Ġerzielen": 6578,
      "onom": 6579,
      "mÃ¤ÃŁig": 6580,
      "Ġabzu": 6581,
      "ĠfÃ¤": 6582,
      "ology": 6583,
      "Ġhohen": 6584,
      "ĠOrdnung": 6585,
      "Qu": 6586,
      "ĠEind": 6587,
      "ĠstÃ¤rken": 6588,
      "ĠBeruf": 6589,
      "Ġausgezeichne": 6590,
      "Ġimproving": 6591,
      "ĠListe": 6592,
      "Ġenjoy": 6593,
      "unk": 6594,
      "ibly": 6595,
      "Ġdevelopments": 6596,
      "dra": 6597,
      "urd": 6598,
      "ĠKy": 6599,
      "ĠHar": 6600,
      "Ander": 6601,
      "ĠPPE": 6602,
      "Inde": 6603,
      "Ġfinancing": 6604,
      "Ġburden": 6605,
      "Ġsitu": 6606,
      "ĠSchritte": 6607,
      "bild": 6608,
      "geber": 6609,
      "ĠNorth": 6610,
      "Ġentfern": 6611,
      "ĠAchtung": 6612,
      "mbol": 6613,
      "ĠEnglish": 6614,
      "Dennoch": 6615,
      "ION": 6616,
      "ĠVis": 6617,
      "Ġremark": 6618,
      "ĠgrenzÃ": 6619,
      "Ġpublish": 6620,
      "Ġrisks": 6621,
      "Bet": 6622,
      "Ġweap": 6623,
      "ĠStÃ¤rkung": 6624,
      "Ġverbessert": 6625,
      "ĠsÃ¤mt": 6626,
      "Ġgleiche": 6627,
      "ĠMinuten": 6628,
      "ĠRegional": 6629,
      "Please": 6630,
      "inal": 6631,
      "Ġcentur": 6632,
      "ĠFrÃ": 6633,
      "ilf": 6634,
      "Ġwann": 6635,
      "uell": 6636,
      "Ġunternehmen": 6637,
      "anischen": 6638,
      "ĠMoment": 6639,
      "Ġschem": 6640,
      "Ġdemands": 6641,
      "steller": 6642,
      "Ġaktiv": 6643,
      "uls": 6644,
      "ĠGruppe": 6645,
      "Ġstre": 6646,
      "Ġpositiv": 6647,
      "tert": 6648,
      "Ġones": 6649,
      "Ġcommercial": 6650,
      "sektor": 6651,
      "wart": 6652,
      "Ġmanner": 6653,
      "Ġstrategic": 6654,
      "ĠLuxem": 6655,
      "Ġverurs": 6656,
      "Ġelements": 6657,
      "ĠIrak": 6658,
      "government": 6659,
      "Zur": 6660,
      "Ġcontains": 6661,
      "rper": 6662,
      "ĠIrish": 6663,
      "ĠauÃŁerhalb": 6664,
      "umÃ¤n": 6665,
      "laus": 6666,
      "Ġnotwendigen": 6667,
      "ĠForschungs": 6668,
      "ĠJustice": 6669,
      "Ġloss": 6670,
      "Ġwhom": 6671,
      "Ġarr": 6672,
      "riffe": 6673,
      "nes": 6674,
      "ĠAusgaben": 6675,
      "Ġstets": 6676,
      "Ġobviously": 6677,
      "Ġlaunch": 6678,
      "Ġkommenden": 6679,
      "Ġniedr": 6680,
      "imately": 6681,
      "Ġkonzentrieren": 6682,
      "Ġintroduction": 6683,
      "itious": 6684,
      "Ġanyone": 6685,
      "Even": 6686,
      "ĠGrundrechte": 6687,
      "reff": 6688,
      "ĠFern": 6689,
      "ĠOst": 6690,
      "Ġacqu": 6691,
      "ĠIhrem": 6692,
      "ĠVorbereit": 6693,
      "Ġimproved": 6694,
      "Ġdeg": 6695,
      "Ġzul": 6696,
      "Ġconstant": 6697,
      "ĠrÃ": 6698,
      "lines": 6699,
      "Because": 6700,
      "Ġdurchaus": 6701,
      "ĠTage": 6702,
      "iction": 6703,
      "ĠMensch": 6704,
      "ĠÃľbergang": 6705,
      "Te": 6706,
      "arz": 6707,
      "Ġhinzu": 6708,
      "zehn": 6709,
      "Ġcolleague": 6710,
      "lÃ¤nd": 6711,
      "ĠGreece": 6712,
      "Ġgebe": 6713,
      "udgets": 6714,
      "Ġgegenseit": 6715,
      "Any": 6716,
      "Ġoffensichtlich": 6717,
      "ancen": 6718,
      "Ġunan": 6719,
      "ĠRules": 6720,
      "Ġspirit": 6721,
      "ĠKohÃ¤s": 6722,
      "samm": 6723,
      "Ġaccident": 6724,
      "Or": 6725,
      "ĠUnivers": 6726,
      "Ġmethods": 6727,
      "Ġconference": 6728,
      "ĠPrioritÃ¤t": 6729,
      "Ġbefindet": 6730,
      "IC": 6731,
      "arta": 6732,
      "Ġpersons": 6733,
      "Ġanderes": 6734,
      "ausschusses": 6735,
      "Ġverfolgen": 6736,
      "rÃ¤ge": 6737,
      "iveau": 6738,
      "Ġeingere": 6739,
      "Ġeinzu": 6740,
      "Ġfrag": 6741,
      "Ġworked": 6742,
      "ĠVerhalten": 6743,
      "Ġwilling": 6744,
      "Ã¤nz": 6745,
      "Ġgesetzt": 6746,
      "ĠUmst": 6747,
      "Ġcondemn": 6748,
      "Ġearlier": 6749,
      "ĠUK": 6750,
      "ĠNetz": 6751,
      "ĠTÃ¤tigkeit": 6752,
      "Ġstra": 6753,
      "werte": 6754,
      "Ġimmediately": 6755,
      "Ġsubmitted": 6756,
      "Ġvorgeschlagenen": 6757,
      "Ġintroduced": 6758,
      "Ġinfluence": 6759,
      "Den": 6760,
      "bahn": 6761,
      "glichst": 6762,
      "ĠFonds": 6763,
      "zeugung": 6764,
      "Ġunf": 6765,
      "Ġleicht": 6766,
      "Ġopposition": 6767,
      "dienst": 6768,
      "estens": 6769,
      "anst": 6770,
      "gemeine": 6771,
      "gestimmt": 6772,
      "Ġspecifically": 6773,
      "ĠFalle": 6774,
      "gesetz": 6775,
      "Ġethn": 6776,
      "ĠPrivat": 6777,
      "Ġsaw": 6778,
      "Ġniemand": 6779,
      "Ġround": 6780,
      "ĠSpain": 6781,
      "ables": 6782,
      "limin": 6783,
      "ulated": 6784,
      "Ġeinzus": 6785,
      "ĠFraktionen": 6786,
      "II": 6787,
      "nlich": 6788,
      "Ġfine": 6789,
      "ĠRegelungen": 6790,
      "ĠGesetzgebung": 6791,
      "ĠSlo": 6792,
      "ĠRel": 6793,
      "Ġspra": 6794,
      "Ġpict": 6795,
      "zeÃŁ": 6796,
      "sÃ¤tz": 6797,
      "ĠHow": 6798,
      "Ġwarm": 6799,
      "Ġanderem": 6800,
      "Ġoriginal": 6801,
      "ĠKind": 6802,
      "Ġsupporting": 6803,
      "Ġoccur": 6804,
      "zul": 6805,
      "ĠSchwer": 6806,
      "room": 6807,
      "ĠBeihilfen": 6808,
      "regel": 6809,
      "Ġaufmerksam": 6810,
      "Ġideas": 6811,
      "ĠEinhaltung": 6812,
      "ĠbeschrÃ¤n": 6813,
      "Many": 6814,
      "ifying": 6815,
      "Ġdamage": 6816,
      "Ġdelay": 6817,
      "ĠEngagement": 6818,
      "ĠendgÃ": 6819,
      "Ġging": 6820,
      "Ġdiscussing": 6821,
      "cle": 6822,
      "ĠTab": 6823,
      "Ġvoraus": 6824,
      "llos": 6825,
      "see": 6826,
      "Ġslow": 6827,
      "Ġvir": 6828,
      "Ġgestern": 6829,
      "Ġausgewogen": 6830,
      "atik": 6831,
      "Ġhop": 6832,
      "Ġevidence": 6833,
      "Although": 6834,
      "ĠEigen": 6835,
      "ows": 6836,
      "ĠVerhÃ¤lt": 6837,
      "ĠausfÃ": 6838,
      "Ġmoder": 6839,
      "coming": 6840,
      "Ġsubstantial": 6841,
      "ta": 6842,
      "ustausch": 6843,
      "ĠGesamt": 6844,
      "Ġcomprehensive": 6845,
      "Ġpain": 6846,
      "ĠAud": 6847,
      "Ġstimmt": 6848,
      "ĠFortschritt": 6849,
      "ĠNahrungs": 6850,
      "Ġerweit": 6851,
      "ĠEinrichtung": 6852,
      "ĠBarroso": 6853,
      "otion": 6854,
      "ya": 6855,
      "imal": 6856,
      "Ġcandidate": 6857,
      "ĠgewÃ": 6858,
      "ron": 6859,
      "esellschaften": 6860,
      "Ġzahlreiche": 6861,
      "ĠAnp": 6862,
      "ĠGreen": 6863,
      "ĠWeit": 6864,
      "Ġfallen": 6865,
      "ĠMobil": 6866,
      "Ġstattfinden": 6867,
      "ĠMediterranean": 6868,
      "Ġdangerous": 6869,
      "kur": 6870,
      "Ġbein": 6871,
      "ĠSign": 6872,
      "Ġincludes": 6873,
      "Ġfolgt": 6874,
      "ĠMEP": 6875,
      "Ġworks": 6876,
      "ĠGebieten": 6877,
      "ĠTodes": 6878,
      "bl": 6879,
      "brauch": 6880,
      "Ġelement": 6881,
      "Ġerkennen": 6882,
      "Ġcondition": 6883,
      "governmental": 6884,
      "isms": 6885,
      "ĠEconomic": 6886,
      "ĠLauf": 6887,
      "Ġentscheid": 6888,
      "tritt": 6889,
      "Ġvermeiden": 6890,
      "ensus": 6891,
      "Ġunbe": 6892,
      "Ġsuc": 6893,
      "endum": 6894,
      "Ġannoun": 6895,
      "Bes": 6896,
      "itten": 6897,
      "ĠPartei": 6898,
      "Ġerr": 6899,
      "Ġminister": 6900,
      "inding": 6901,
      "ĠIrland": 6902,
      "Ġhohe": 6903,
      "law": 6904,
      "Ġconcrete": 6905,
      "ĠPet": 6906,
      "Ġincreasingly": 6907,
      "Ġinitial": 6908,
      "endes": 6909,
      "Ġkonstru": 6910,
      "elten": 6911,
      "Ġcompetitive": 6912,
      "Indeed": 6913,
      "Ġcooper": 6914,
      "Ġequality": 6915,
      "Ġpath": 6916,
      "ĠRest": 6917,
      "ĠGel": 6918,
      "Ġoutcome": 6919,
      "Ġsomeone": 6920,
      "Dazu": 6921,
      "ĠRechnungs": 6922,
      "Ġunternommen": 6923,
      "ĠHam": 6924,
      "zeuge": 6925,
      "setzt": 6926,
      "Ġstatements": 6927,
      "ĠPolicy": 6928,
      "inced": 6929,
      "ĠgegenwÃ¤rtig": 6930,
      "Ġvan": 6931,
      "Ġannual": 6932,
      "ĠVersch": 6933,
      "ĠBestand": 6934,
      "ĠKir": 6935,
      "ĠProduktion": 6936,
      "celona": 6937,
      "union": 6938,
      "Ġchanged": 6939,
      "Ġurge": 6940,
      "Ġcurrency": 6941,
      "Ġteam": 6942,
      "ĠStraÃŁen": 6943,
      "Ġsucceed": 6944,
      "ismen": 6945,
      "Ġcommitments": 6946,
      "ĠMonate": 6947,
      "Ġraise": 6948,
      "Ġexplo": 6949,
      "ĠZeitraum": 6950,
      "ursday": 6951,
      "ĠTagen": 6952,
      "ĠNacht": 6953,
      "Ġexpendit": 6954,
      "sc": 6955,
      "Ġnennen": 6956,
      "ĠFunktion": 6957,
      "rid": 6958,
      "Ġfu": 6959,
      "ĠÃľberwachung": 6960,
      "Ġonline": 6961,
      "ĠItalian": 6962,
      "Ġzustimmen": 6963,
      "olf": 6964,
      "arlament": 6965,
      "ĠBew": 6966,
      "ĠErfahrungen": 6967,
      "Ġbestimmt": 6968,
      "ĠBeschluss": 6969,
      "Ġdarstellen": 6970,
      "ĠEntwurf": 6971,
      "ĠBereit": 6972,
      "ĠFebruar": 6973,
      "Ġproducers": 6974,
      "Ġtrag": 6975,
      "ĠSummit": 6976,
      "ĠFlex": 6977,
      "Ins": 6978,
      "ĠMitarbeit": 6979,
      "Ġdifferences": 6980,
      "Ġverantwortlich": 6981,
      "Ġconvinced": 6982,
      "Ġbecoming": 6983,
      "Ġmother": 6984,
      "Ġverfolgt": 6985,
      "Ġhands": 6986,
      "ĠBasis": 6987,
      "either": 6988,
      "ĠGrenz": 6989,
      "Ġrise": 6990,
      "Ġboard": 6991,
      "ĠSpanish": 6992,
      "Ġconclude": 6993,
      "Ġsources": 6994,
      "Ġhom": 6995,
      "Ġsuperv": 6996,
      "ĠSal": 6997,
      "ĠAnforderungen": 6998,
      "ids": 6999,
      "ndet": 7000,
      "erst": 7001,
      "NL": 7002,
      "ĠRussian": 7003,
      "ĠerklÃ¤ren": 7004,
      "ĠKoordinierung": 7005,
      "Ġfuck": 7006,
      "Ġerforderlichen": 7007,
      "Ġapplies": 7008,
      "ĠMilliar": 7009,
      "ĠSecurity": 7010,
      "ĠJustiz": 7011,
      "ĠSinn": 7012,
      "Ġregular": 7013,
      "Ġeffizient": 7014,
      "ĠChe": 7015,
      "ĠSchÃ": 7016,
      "sized": 7017,
      "izin": 7018,
      "stoffe": 7019,
      "zeichnen": 7020,
      "Only": 7021,
      "Ġfacilit": 7022,
      "Ġbeige": 7023,
      "Acc": 7024,
      "ĠAnaly": 7025,
      "Ġpromoting": 7026,
      "ossible": 7027,
      "Applause": 7028,
      "nach": 7029,
      "ĠVerfass": 7030,
      "Ġentsprechende": 7031,
      "ĠWar": 7032,
      "Ġremov": 7033,
      "Ġappeal": 7034,
      "Ġentfernt": 7035,
      "cent": 7036,
      "ĠEd": 7037,
      "ĠBewertung": 7038,
      "ĠProdi": 7039,
      "ĠHeim": 7040,
      "Ġacceptable": 7041,
      "ichern": 7042,
      "folgerungen": 7043,
      "Ġexpenditure": 7044,
      "ĠSM": 7045,
      "uren": 7046,
      "gencies": 7047,
      "ĠWunsch": 7048,
      "ĠAufnahme": 7049,
      "grenz": 7050,
      "Nevertheless": 7051,
      "ĠJahrhunder": 7052,
      "ĠPatienten": 7053,
      "verkehrs": 7054,
      "Ġambitious": 7055,
      "Commission": 7056,
      "abor": 7057,
      "Ġstabil": 7058,
      "Ġpropert": 7059,
      "kosten": 7060,
      "ĠÃľberprÃ": 7061,
      "verstanden": 7062,
      "Ġopening": 7063,
      "Ġmm": 7064,
      "ĠEuropÃ¤er": 7065,
      "Ġinteresting": 7066,
      "Ġverloren": 7067,
      "Ġshar": 7068,
      "ĠSer": 7069,
      "ensions": 7070,
      "Ġabsolut": 7071,
      "ĠHarmon": 7072,
      "Ġclean": 7073,
      "ĠBeschÃ¤ftigungs": 7074,
      "Ġinfrastructure": 7075,
      "Ar": 7076,
      "ET": 7077,
      "Trotz": 7078,
      "nerstag": 7079,
      "ĠKingdom": 7080,
      "zust": 7081,
      "Ġfreien": 7082,
      "Beifall": 7083,
      "Gleichzeitig": 7084,
      "ĠArbeitslosigkeit": 7085,
      "Ġgenuine": 7086,
      "oon": 7087,
      "ĠEing": 7088,
      "ĠPost": 7089,
      "lose": 7090,
      "Ġkaum": 7091,
      "ndung": 7092,
      "ĠGal": 7093,
      "ĠZeich": 7094,
      "Ġvorsch": 7095,
      "rittens": 7096,
      "Ġempf": 7097,
      "Ġestablishing": 7098,
      "Ġsuchen": 7099,
      "ĠDar": 7100,
      "gesichts": 7101,
      "Ġdynam": 7102,
      "Ġentirely": 7103,
      "ÃĦ": 7104,
      "ĠdiesbezÃ": 7105,
      "imb": 7106,
      "chst": 7107,
      "Ġbir": 7108,
      "undes": 7109,
      "Ġprison": 7110,
      "Ġdrawn": 7111,
      "aken": 7112,
      "ĠGene": 7113,
      "Ġern": 7114,
      "ĠLib": 7115,
      "ĠÃ¤uÃŁ": 7116,
      "ekten": 7117,
      "gewicht": 7118,
      "bsite": 7119,
      "Ġbetroffenen": 7120,
      "estic": 7121,
      "ieg": 7122,
      "Ġseries": 7123,
      "fahrt": 7124,
      "Ġtal": 7125,
      "ĠtÃ¤t": 7126,
      "hafte": 7127,
      "Ġlaid": 7128,
      "Ġerfahren": 7129,
      "ibilitÃ¤t": 7130,
      "andidaten": 7131,
      "ĠBotschaft": 7132,
      "fÃ¤lt": 7133,
      "hlen": 7134,
      "ĠVater": 7135,
      "ĠBarcelona": 7136,
      "gef": 7137,
      "ĠGrunde": 7138,
      "ĠlÃ¤nger": 7139,
      "Ã¤rkte": 7140,
      "Ġlaws": 7141,
      "Ġcloser": 7142,
      "Ġaims": 7143,
      "ĠAsyl": 7144,
      "Ġleading": 7145,
      "ĠEmpfehlungen": 7146,
      "Ġwarten": 7147,
      "Ġkontroll": 7148,
      "richtlinie": 7149,
      "Ġpie": 7150,
      "ugos": 7151,
      "losen": 7152,
      "Ġadministration": 7153,
      "ĠMechan": 7154,
      "Ġintroduce": 7155,
      "Ġstrongly": 7156,
      "Ġreduced": 7157,
      "Ġvertra": 7158,
      "Ġemphasise": 7159,
      "ĠForderungen": 7160,
      "cknow": 7161,
      "stelle": 7162,
      "ĠBeste": 7163,
      "Ġfather": 7164,
      "Ġrelated": 7165,
      "ĠVerpflichtung": 7166,
      "rÃ¤ft": 7167,
      "making": 7168,
      "ĠTun": 7169,
      "spolit": 7170,
      "Selbst": 7171,
      "itors": 7172,
      "ĠKlar": 7173,
      "akte": 7174,
      "Ġbefassen": 7175,
      "orse": 7176,
      "Einige": 7177,
      "Ġrecognise": 7178,
      "ĠMinderheiten": 7179,
      "Other": 7180,
      "Ġquant": 7181,
      "hrungen": 7182,
      "achtung": 7183,
      "Ġunanim": 7184,
      "ranted": 7185,
      "asten": 7186,
      "agn": 7187,
      "Europa": 7188,
      "istence": 7189,
      "Ġgrowing": 7190,
      "Ġthousands": 7191,
      "ĠLiberalisierung": 7192,
      "ĠEle": 7193,
      "wide": 7194,
      "Ġbeaut": 7195,
      "ĠgÃ": 7196,
      "ĠEuropeans": 7197,
      "ĠDimension": 7198,
      "ugg": 7199,
      "ĠAnfrage": 7200,
      "auftrag": 7201,
      "Ġtruth": 7202,
      "ĠOsten": 7203,
      "Ġamer": 7204,
      "Ġfacing": 7205,
      "Ġunivers": 7206,
      "ĠImm": 7207,
      "Ġkomme": 7208,
      "Ġrepresents": 7209,
      "iÃ": 7210,
      "oul": 7211,
      "Ġeiniger": 7212,
      "ĠBos": 7213,
      "programm": 7214,
      "min": 7215,
      "Ġacknow": 7216,
      "ees": 7217,
      "Ġdienen": 7218,
      "atever": 7219,
      "Per": 7220,
      "ĠBil": 7221,
      "ĠMaÃŁnahme": 7222,
      "Ġcompens": 7223,
      "Ent": 7224,
      "ĠBesuch": 7225,
      "Ġadvantage": 7226,
      "Ġmonetary": 7227,
      "Ġult": 7228,
      "Ġdisch": 7229,
      "ĠInhalt": 7230,
      "Ġneben": 7231,
      "ĠBi": 7232,
      "ĠChin": 7233,
      "atell": 7234,
      "ĠBedÃ": 7235,
      "Ġdepend": 7236,
      "Ġbra": 7237,
      "Ġeinsetzen": 7238,
      "Ġmainly": 7239,
      "Ġfulfil": 7240,
      "gal": 7241,
      "ĠWÃ¤hrungs": 7242,
      "ĠErwÃ¤": 7243,
      "ĠgegenwÃ¤rtigen": 7244,
      "ĠHerausforderung": 7245,
      "berschreit": 7246,
      "aÃŁ": 7247,
      "Ġgone": 7248,
      "Ġuntersuch": 7249,
      "ĠDiskriminierung": 7250,
      "Ġstructure": 7251,
      "Ġeinger": 7252,
      "ĠSun": 7253,
      "ĠInnovation": 7254,
      "Ġintegrated": 7255,
      "ĠMio": 7256,
      "Ġgek": 7257,
      "Ġsicherstellen": 7258,
      "ĠStraf": 7259,
      "schÃ¤": 7260,
      "ĠEinfluss": 7261,
      "Ġunion": 7262,
      "renze": 7263,
      "ps": 7264,
      "Ġlies": 7265,
      "grundlage": 7266,
      "ĠAngst": 7267,
      "Ġleid": 7268,
      "Ġausreichend": 7269,
      "ĠMaÃŁe": 7270,
      "Ġergriffen": 7271,
      "ĠMÃ¤nner": 7272,
      "ifellos": 7273,
      "ĠStunden": 7274,
      "Ġentspricht": 7275,
      "Ġstarting": 7276,
      "ĠVorteile": 7277,
      "ĠMich": 7278,
      "ĠÃľ": 7279,
      "Ġbalanced": 7280,
      "ĠVerteidigung": 7281,
      "ĠStre": 7282,
      "stellungen": 7283,
      "Ġdro": 7284,
      "ĠKindern": 7285,
      "heren": 7286,
      "ĠBeteiligung": 7287,
      "Ġcritical": 7288,
      "Ġdiskutiert": 7289,
      "ĠKonzept": 7290,
      "struktur": 7291,
      "Ġdram": 7292,
      "ungsverfahren": 7293,
      "ĠVerÃ¤nderungen": 7294,
      "Ġfolgende": 7295,
      "Such": 7296,
      "ole": 7297,
      "Ġpartner": 7298,
      "inent": 7299,
      "Ġperman": 7300,
      "ĠWege": 7301,
      "Ġdefend": 7302,
      "Ġclaim": 7303,
      "Ġbeantwor": 7304,
      "entw": 7305,
      "ilen": 7306,
      "Ġregel": 7307,
      "ĠErd": 7308,
      "ĠMitteln": 7309,
      "ĠGarant": 7310,
      "Ġster": 7311,
      "Ġdesigned": 7312,
      "vis": 7313,
      "ĠKan": 7314,
      "Ġherz": 7315,
      "orgnis": 7316,
      "Sa": 7317,
      "fiz": 7318,
      "Ã¤he": 7319,
      "ĠMad": 7320,
      "Ġlower": 7321,
      "ĠAusbildung": 7322,
      "Ġangeht": 7323,
      "Ġfraud": 7324,
      "Ġphys": 7325,
      "ĠWillen": 7326,
      "ĠFaktor": 7327,
      "ĠKollege": 7328,
      "zone": 7329,
      "Ã¤rm": 7330,
      "try": 7331,
      "kolog": 7332,
      "itness": 7333,
      "ĠChancen": 7334,
      "Ġauss": 7335,
      "gers": 7336,
      "Ġknows": 7337,
      "Ġinformed": 7338,
      "Ġhappening": 7339,
      "ĠTurk": 7340,
      "attet": 7341,
      "Ġgame": 7342,
      "ĠEinwanderung": 7343,
      "ĠAlban": 7344,
      "Ġrecommendations": 7345,
      "alter": 7346,
      "ĠvollstÃ¤ndig": 7347,
      "ĠCy": 7348,
      "orthern": 7349,
      "Ġgeschieht": 7350,
      "Ġmoral": 7351,
      "Ġwert": 7352,
      "Ġimpossible": 7353,
      "Ġstor": 7354,
      "iffer": 7355,
      "Ġinterpret": 7356,
      "Ġwahrscheinlich": 7357,
      "ĠGruppen": 7358,
      "gramme": 7359,
      "Ġaccomp": 7360,
      "Ġcovered": 7361,
      "ĠVerstÃ¤nd": 7362,
      "Ġnationaler": 7363,
      "ĠEP": 7364,
      "Ġconcentr": 7365,
      "ĠArbeitsmarkt": 7366,
      "ĠGegenteil": 7367,
      "Ġfeed": 7368,
      "Angesichts": 7369,
      "ĠhÃ¤lt": 7370,
      "ĠEnvironment": 7371,
      "Ġnieder": 7372,
      "ĠBro": 7373,
      "ummer": 7374,
      "Third": 7375,
      "ĠAgrarpolitik": 7376,
      "Ġyourself": 7377,
      "Ġwesentlichen": 7378,
      "Ġfordere": 7379,
      "nsch": 7380,
      "Ġdre": 7381,
      "Ġequip": 7382,
      "Ġorganisation": 7383,
      "hindert": 7384,
      "ĠAir": 7385,
      "ĠProced": 7386,
      "ĠHauses": 7387,
      "Ġbetont": 7388,
      "ĠStellen": 7389,
      "ĠStrukturfonds": 7390,
      "Ġaddressed": 7391,
      "Ġstrict": 7392,
      "Bitte": 7393,
      "Ġachieving": 7394,
      "border": 7395,
      "chmal": 7396,
      "ĠMinisters": 7397,
      "rich": 7398,
      "Ġperspective": 7399,
      "Ġunc": 7400,
      "hrungs": 7401,
      "ney": 7402,
      "Ġenfor": 7403,
      "ĠInfrastruktur": 7404,
      "attle": 7405,
      "leistung": 7406,
      "Ġtre": 7407,
      "Ġputting": 7408,
      "Ġfollowed": 7409,
      "ĠIndustr": 7410,
      "entscheid": 7411,
      "anging": 7412,
      "versorgung": 7413,
      "Ġbezahl": 7414,
      "osp": 7415,
      "konom": 7416,
      "schlÃ¤ge": 7417,
      "ording": 7418,
      "lob": 7419,
      "Ġtotally": 7420,
      "iders": 7421,
      "ommer": 7422,
      "Ġbedeuten": 7423,
      "Ġsafeguard": 7424,
      "uff": 7425,
      "Ġtransition": 7426,
      "Ġnein": 7427,
      "Ġflexibility": 7428,
      "iful": 7429,
      "Ġrates": 7430,
      "Ġprefer": 7431,
      "Ġbetrachtet": 7432,
      "Ġwind": 7433,
      "okraten": 7434,
      "ĠConstitution": 7435,
      "ĠWorten": 7436,
      "ĠKritik": 7437,
      "ĠFinn": 7438,
      "ĠgewÃ¤hrleistet": 7439,
      "rokrat": 7440,
      "hst": 7441,
      "int": 7442,
      "Ġpolitischer": 7443,
      "Ġmill": 7444,
      "Ġfert": 7445,
      "gruppe": 7446,
      "Ġresponsibilities": 7447,
      "isted": 7448,
      "Ġunable": 7449,
      "Those": 7450,
      "ĠCons": 7451,
      "ĠZimmer": 7452,
      "Ġrecognition": 7453,
      "ĠLeitlinien": 7454,
      "Ġcontrary": 7455,
      "Ġbeteiligt": 7456,
      "lor": 7457,
      "onic": 7458,
      "ĠMittelmeer": 7459,
      "Ġwatch": 7460,
      "Ġpractices": 7461,
      "Ġunderstanding": 7462,
      "Ġfalls": 7463,
      "gruppen": 7464,
      "tung": 7465,
      "uropa": 7466,
      "angs": 7467,
      "Ġfolgenden": 7468,
      "ĠEisen": 7469,
      "Ġlat": 7470,
      "Ġnochmals": 7471,
      "Ġexplain": 7472,
      "Ġtechnischen": 7473,
      "Ġsanctions": 7474,
      "Ġsigned": 7475,
      "ĠnÃ¤chste": 7476,
      "ĠzusÃ¤tzliche": 7477,
      "Ġwithdra": 7478,
      "lÃ¤gt": 7479,
      "Ġsensitive": 7480,
      "Ġgrant": 7481,
      "Ġfailure": 7482,
      "Komm": 7483,
      "ĠSonder": 7484,
      "allo": 7485,
      "abhÃ¤ngigkeit": 7486,
      "Jed": 7487,
      "Ġinn": 7488,
      "altet": 7489,
      "Ġzudem": 7490,
      "igne": 7491,
      "ĠJohn": 7492,
      "ideo": 7493,
      "Ġdealt": 7494,
      "Ġflow": 7495,
      "ĠjÃ¤hr": 7496,
      "Ġnachhaltige": 7497,
      "Ġconduct": 7498,
      "called": 7499,
      "zent": 7500,
      "Ġeinverstanden": 7501,
      "Ġstrengthening": 7502,
      "anach": 7503,
      "ĠZweck": 7504,
      "ĠWiederauf": 7505,
      "Ġvia": 7506,
      "ĠEv": 7507,
      "Ġlines": 7508,
      "Ġausges": 7509,
      "igent": 7510,
      "Ġmeant": 7511,
      "ĠProblemen": 7512,
      "Ġdegree": 7513,
      "ciliation": 7514,
      "ĠGlaub": 7515,
      "Ġelektr": 7516,
      "ĠMiddle": 7517,
      "Ġreply": 7518,
      "licherweise": 7519,
      "werten": 7520,
      "Ġprevention": 7521,
      "ĠCharter": 7522,
      "unst": 7523,
      "ĠLandwirte": 7524,
      "ĠGriechenland": 7525,
      "uba": 7526,
      "ĠProcedure": 7527,
      "pendence": 7528,
      "ĠSam": 7529,
      "Ġspace": 7530,
      "olge": 7531,
      "Ġquot": 7532,
      "ĠtrÃ¤gt": 7533,
      "ĠSpanien": 7534,
      "Ġenormous": 7535,
      "Ġproport": 7536,
      "Ġconsensus": 7537,
      "ĠSanktionen": 7538,
      "Ġagencies": 7539,
      "Ġgranted": 7540,
      "ĠHintergrund": 7541,
      "ja": 7542,
      "atlant": 7543,
      "ĠRedner": 7544,
      "rochen": 7545,
      "ĠCol": 7546,
      "Ġinterested": 7547,
      "ĠNah": 7548,
      "Ġnews": 7549,
      "Ġexercise": 7550,
      "Ġalten": 7551,
      "ĠauÃŁerord": 7552,
      "Alles": 7553,
      "ĠKar": 7554,
      "Ġconstruction": 7555,
      "EA": 7556,
      "ĠBur": 7557,
      "Ġreducing": 7558,
      "igrants": 7559,
      "ĠAltern": 7560,
      "lemente": 7561,
      "Ġdestro": 7562,
      "ias": 7563,
      "Ġdimension": 7564,
      "Ġangeb": 7565,
      "ĠMy": 7566,
      "ĠFar": 7567,
      "risen": 7568,
      "Ġnetworks": 7569,
      "Ġbehaup": 7570,
      "ĠGedanken": 7571,
      "ĠAC": 7572,
      "iode": 7573,
      "Viele": 7574,
      "oe": 7575,
      "ĠHoffnung": 7576,
      "ĠCl": 7577,
      "Ġabgeschlossen": 7578,
      "Ġsignal": 7579,
      "Ġtried": 7580,
      "ĠVerl": 7581,
      "orea": 7582,
      "ĠWissenschaft": 7583,
      "Ġmanaged": 7584,
      "ĠChamber": 7585,
      "Ġought": 7586,
      "Ġberu": 7587,
      "Ã¤rkten": 7588,
      "Ġattempt": 7589,
      "ZunÃ¤chst": 7590,
      "uert": 7591,
      "Ġgreen": 7592,
      "ĠSea": 7593,
      "Ġerneuer": 7594,
      "Ġfalsch": 7595,
      "ĠBus": 7596,
      "Ġheav": 7597,
      "Ġgenutzt": 7598,
      "ĠAkt": 7599,
      "Ġdisease": 7600,
      "hold": 7601,
      "WÃ¤hrend": 7602,
      "Ġgesetz": 7603,
      "akter": 7604,
      "elbe": 7605,
      "punkte": 7606,
      "Ġfro": 7607,
      "ĠgeÃ¤ndert": 7608,
      "Ġfestgestellt": 7609,
      "view": 7610,
      "stadt": 7611,
      "Ġincorpor": 7612,
      "linge": 7613,
      "ĠRechnung": 7614,
      "ĠEntwicklungen": 7615,
      "istisch": 7616,
      "set": 7617,
      "udem": 7618,
      "Ġlinks": 7619,
      "ĠSach": 7620,
      "ev": 7621,
      "Ġdischarge": 7622,
      "ranken": 7623,
      "Ġvoice": 7624,
      "OL": 7625,
      "Ġintervention": 7626,
      "Ġrefugees": 7627,
      "Ġprofessional": 7628,
      "Sol": 7629,
      "ĠDen": 7630,
      "Ġfoot": 7631,
      "ĠTH": 7632,
      "ĠInstit": 7633,
      "reck": 7634,
      "Ġlay": 7635,
      "ĠRu": 7636,
      "Ġdemokratische": 7637,
      "volle": 7638,
      "unge": 7639,
      "Ġabgele": 7640,
      "Ġfunktioniert": 7641,
      "Ġmechanism": 7642,
      "ĠGlobalisierung": 7643,
      "ĠAgency": 7644,
      "flÃ": 7645,
      "Ġcentre": 7646,
      "IP": 7647,
      "Ġzentral": 7648,
      "Ġraus": 7649,
      "Pe": 7650,
      "orf": 7651,
      "Ġkl": 7652,
      "Ġtraffic": 7653,
      "Ġthre": 7654,
      "nex": 7655,
      "ĠReise": 7656,
      "Ġrespekt": 7657,
      "mittag": 7658,
      "Ġpenalt": 7659,
      "anda": 7660,
      "Ġresolutions": 7661,
      "Ġharm": 7662,
      "Ġexpected": 7663,
      "Ġdefinition": 7664,
      "oted": 7665,
      "ee": 7666,
      "ĠRad": 7667,
      "ĠGefÃ": 7668,
      "Ġmur": 7669,
      "Ġcop": 7670,
      "Ġrech": 7671,
      "Ġjene": 7672,
      "Ġplant": 7673,
      "Ġpatients": 7674,
      "Ġcentury": 7675,
      "ength": 7676,
      "ĠPark": 7677,
      "vergen": 7678,
      "ĠVergleich": 7679,
      "Ġdrink": 7680,
      "ĠDi": 7681,
      "Ġlegen": 7682,
      "ĠWahrheit": 7683,
      "Ġerfolgen": 7684,
      "handels": 7685,
      "Ġoccup": 7686,
      "ĠKunden": 7687,
      "ktors": 7688,
      "mlich": 7689,
      "oz": 7690,
      "Ġglad": 7691,
      "Ġrejected": 7692,
      "Ġverring": 7693,
      "Ġerleich": 7694,
      "ĠÃĦnderungsantrÃ¤gen": 7695,
      "hebung": 7696,
      "Drittens": 7697,
      "ĠRisiko": 7698,
      "ĠGrundsÃ¤tze": 7699,
      "arlamentar": 7700,
      "Ġreact": 7701,
      "Ġdelegation": 7702,
      "laden": 7703,
      "Ġderzeitigen": 7704,
      "Ġdetailed": 7705,
      "Ġemb": 7706,
      "ĠEnd": 7707,
      "cer": 7708,
      "bere": 7709,
      "Ġpolitic": 7710,
      "Ġtechnologies": 7711,
      "ruit": 7712,
      "ĠEindruck": 7713,
      "ury": 7714,
      "Ġweiterer": 7715,
      "Ġconstructive": 7716,
      "Os": 7717,
      "ĠNutzen": 7718,
      "Ġestablishment": 7719,
      "ĠCent": 7720,
      "ateful": 7721,
      "Ġworry": 7722,
      "Ġpositions": 7723,
      "handlungen": 7724,
      "ĠFrem": 7725,
      "Ġdemonst": 7726,
      "Ġtargets": 7727,
      "astern": 7728,
      "umb": 7729,
      "umping": 7730,
      "ffnung": 7731,
      "Ġgering": 7732,
      "Ġvollkommen": 7733,
      "Ġintend": 7734,
      "ivity": 7735,
      "Mrs": 7736,
      "Ġactual": 7737,
      "Ġrequests": 7738,
      "ĠVielfalt": 7739,
      "ĠspÃ¤t": 7740,
      "Ġklein": 7741,
      "Ġcarefully": 7742,
      "ique": 7743,
      "Ġpointed": 7744,
      "chsel": 7745,
      "ĠGas": 7746,
      "ffnet": 7747,
      "Ġmiteinander": 7748,
      "ĠAnspruch": 7749,
      "ĠgenÃ": 7750,
      "Sub": 7751,
      "Ġfailed": 7752,
      "Ġobligations": 7753,
      "Ġsize": 7754,
      "Ġbesseren": 7755,
      "geiz": 7756,
      "ĠMindest": 7757,
      "ĠZoll": 7758,
      "Ġsolcher": 7759,
      "Ġdirectives": 7760,
      "Ġdiplomat": 7761,
      "ragt": 7762,
      "ĠZeichen": 7763,
      "ĠSup": 7764,
      "Ġsecure": 7765,
      "Ġhighlight": 7766,
      "ĠAkte": 7767,
      "chnik": 7768,
      "ĠGebiete": 7769,
      "Ġgratulieren": 7770,
      "ĠAnn": 7771,
      "Ġgoal": 7772,
      "Ġsource": 7773,
      "ngsten": 7774,
      "ads": 7775,
      "ĠRatsprÃ¤sidentschaft": 7776,
      "Ġplanning": 7777,
      "Ġfigures": 7778,
      "ĠBSE": 7779,
      "ĠBedenken": 7780,
      "ĠgelÃ": 7781,
      "Ġunterst": 7782,
      "iums": 7783,
      "Ġprior": 7784,
      "ĠMilliarden": 7785,
      "geht": 7786,
      "Ġwelcom": 7787,
      "Ġlocated": 7788,
      "oking": 7789,
      "Ġwichtiges": 7790,
      "oppel": 7791,
      "Ġmaximum": 7792,
      "Ġcoup": 7793,
      "Ġrapporteurs": 7794,
      "sman": 7795,
      "Ġsides": 7796,
      "Ġpill": 7797,
      "Ġforth": 7798,
      "ĠBerat": 7799,
      "ĠBut": 7800,
      "oreign": 7801,
      "HÃ": 7802,
      "Ġfactor": 7803,
      "fuhr": 7804,
      "Ġitalien": 7805,
      "sec": 7806,
      "ering": 7807,
      "Ġerfre": 7808,
      "lÃ¤tzen": 7809,
      "ĠDefin": 7810,
      "Ġfamilies": 7811,
      "Ġcomply": 7812,
      "Ġevening": 7813,
      "ĠMot": 7814,
      "Ġformal": 7815,
      "Ġpolitisch": 7816,
      "ĠBoden": 7817,
      "Ġpositiven": 7818,
      "Ġhar": 7819,
      "Ġhund": 7820,
      "Ġdoor": 7821,
      "Ġglobalen": 7822,
      "Ġarrange": 7823,
      "Ġmandate": 7824,
      "ĠSir": 7825,
      "Ġconsultation": 7826,
      "Ġgirl": 7827,
      "Ġregionalen": 7828,
      "Ġhotel": 7829,
      "Ġunterschiedlichen": 7830,
      "aler": 7831,
      "ĠBefug": 7832,
      "ĠService": 7833,
      "besch": 7834,
      "Ihre": 7835,
      "Som": 7836,
      "standing": 7837,
      "Ġsinnvoll": 7838,
      "upts": 7839,
      "ĠParis": 7840,
      "las": 7841,
      "rk": 7842,
      "Ġbureau": 7843,
      "ĠStandards": 7844,
      "Commissioner": 7845,
      "Ġut": 7846,
      "Ġpun": 7847,
      "Ġcombating": 7848,
      "erungen": 7849,
      "opol": 7850,
      "gerung": 7851,
      "ĠVerbrechen": 7852,
      "amente": 7853,
      "ĠHarmonisierung": 7854,
      "ĠWind": 7855,
      "ĠUmfang": 7856,
      "Ġoffiz": 7857,
      "vi": 7858,
      "Ġentry": 7859,
      "Ġspielt": 7860,
      "Ġdrugs": 7861,
      "ĠFÃ¤lle": 7862,
      "ĠPakistan": 7863,
      "osph": 7864,
      "Ġexplan": 7865,
      "ĠPaper": 7866,
      "Ġweapons": 7867,
      "ĠMEPs": 7868,
      "Ġwest": 7869,
      "Ġprospect": 7870,
      "Ġdisaster": 7871,
      "ĠKapital": 7872,
      "Ġmerely": 7873,
      "Ġblood": 7874,
      "ĠMÃ¤d": 7875,
      "ĠGra": 7876,
      "ĠIns": 7877,
      "Ġdoesn": 7878,
      "Ġbilden": 7879,
      "Ġgenet": 7880,
      "Ġgewiss": 7881,
      "Ġkons": 7882,
      "Ġcompar": 7883,
      "Ġwishes": 7884,
      "ros": 7885,
      "ĠPhil": 7886,
      "ffnen": 7887,
      "reitet": 7888,
      "ĠDrittlÃ¤ndern": 7889,
      "otos": 7890,
      "ĠSee": 7891,
      "Ġbuilt": 7892,
      "Ġgovernance": 7893,
      "ĠstÃ¤ndig": 7894,
      "Ġspent": 7895,
      "ĠAL": 7896,
      "ĠTime": 7897,
      "Ġvolle": 7898,
      "Ġtouch": 7899,
      "ĠDelegation": 7900,
      "itory": 7901,
      "endet": 7902,
      "Ġresolve": 7903,
      "ĠUrs": 7904,
      "onia": 7905,
      "icip": 7906,
      "Ġgrateful": 7907,
      "Go": 7908,
      "pm": 7909,
      "weist": 7910,
      "sequent": 7911,
      "Ġcredit": 7912,
      "embly": 7913,
      "lingen": 7914,
      "ĠArten": 7915,
      "Ġorganised": 7916,
      "Ġdebates": 7917,
      "Ġversion": 7918,
      "SV": 7919,
      "Ġpal": 7920,
      "oler": 7921,
      "Ġaufzu": 7922,
      "Ġdennoch": 7923,
      "wel": 7924,
      "Ġerfordert": 7925,
      "ĠDiskussionen": 7926,
      "Ġbritischen": 7927,
      "redit": 7928,
      "hemal": 7929,
      "Ġhoff": 7930,
      "ĠBra": 7931,
      "ĠDav": 7932,
      "bruch": 7933,
      "organisationen": 7934,
      "ĠBosn": 7935,
      "Ste": 7936,
      "ĠRealitÃ¤t": 7937,
      "Ġdetail": 7938,
      "ĠnÃ¤her": 7939,
      "Ġsupports": 7940,
      "Ġbesonderen": 7941,
      "Ferner": 7942,
      "ĠBudget": 7943,
      "Ġalloc": 7944,
      "Ġformul": 7945,
      "ĠSwed": 7946,
      "Ġoben": 7947,
      "Ġexec": 7948,
      "Ġbehandeln": 7949,
      "ormen": 7950,
      "Ġelected": 7951,
      "Ġlegitim": 7952,
      "Ġgreatest": 7953,
      "Ġinstance": 7954,
      "ĠBlut": 7955,
      "ĠMart": 7956,
      "Ġwaiting": 7957,
      "ĠprÃ¤": 7958,
      "ufÃ": 7959,
      "Ġdefinit": 7960,
      "Ġequipment": 7961,
      "ws": 7962,
      "ĠErfahrung": 7963,
      "aÃŁt": 7964,
      "ĠPalestinian": 7965,
      "Ġspricht": 7966,
      "Ġexcess": 7967,
      "Ġintention": 7968,
      "ountain": 7969,
      "Ġkonkreten": 7970,
      "AB": 7971,
      "Ġverteid": 7972,
      "ĠgrundsÃ¤tz": 7973,
      "spiel": 7974,
      "adem": 7975,
      "liegt": 7976,
      "ĠProte": 7977,
      "ĠIslam": 7978,
      "RE": 7979,
      "ano": 7980,
      "Join": 7981,
      "Ladies": 7982,
      "ĠSystems": 7983,
      "Ġamt": 7984,
      "gemÃ¤ÃŁ": 7985,
      "ĠBeschlÃ": 7986,
      "Ġdouble": 7987,
      "ĠRegierungskonferenz": 7988,
      "ĠsÃ": 7989,
      "Ġcontrols": 7990,
      "Ġmoving": 7991,
      "Ġliberalisation": 7992,
      "klang": 7993,
      "uerung": 7994,
      "Ġwritten": 7995,
      "Ġseparate": 7996,
      "ĠPlenum": 7997,
      "Ġtalks": 7998,
      "ĠAnliegen": 7999,
      "Ġetc": 8000,
      "Ġung": 8001,
      "Ġserve": 8002,
      "ery": 8003,
      "orary": 8004,
      "Ġvotes": 8005,
      "Ġfix": 8006,
      "Ġbinding": 8007,
      "Ġnahe": 8008,
      "According": 8009,
      "Ġabgelehnt": 8010,
      "Ġbilateral": 8011,
      "ĠAktionen": 8012,
      "zimmer": 8013,
      "Ġpaper": 8014,
      "ĠForeign": 8015,
      "ĠFÃ¤h": 8016,
      "Ġmobil": 8017,
      "obby": 8018,
      "ĠWed": 8019,
      "alls": 8020,
      "Ġsiehe": 8021,
      "ĠFle": 8022,
      "Ġreagieren": 8023,
      "neim": 8024,
      "benen": 8025,
      "Ġacts": 8026,
      "Ġnatur": 8027,
      "Ġemployees": 8028,
      "ĠAngeb": 8029,
      "Ġparliaments": 8030,
      "itÃ¤r": 8031,
      "ĠRumÃ¤n": 8032,
      "Ġweshalb": 8033,
      "Ġumwelt": 8034,
      "Thirdly": 8035,
      "limm": 8036,
      "ĠPunkten": 8037,
      "Ġruss": 8038,
      "liance": 8039,
      "ĠFuÃŁ": 8040,
      "Ġtruly": 8041,
      "Ġdescrib": 8042,
      "icken": 8043,
      "ĠMenge": 8044,
      "Ġterritorial": 8045,
      "ĠDemocrats": 8046,
      "Zudem": 8047,
      "Ġwalk": 8048,
      "Ġvorlegen": 8049,
      "Ġgewisse": 8050,
      "ĠlÃ¤ndlichen": 8051,
      "Ġnice": 8052,
      "Ġsetzt": 8053,
      "strategie": 8054,
      "Ġtransl": 8055,
      "orb": 8056,
      "uses": 8057,
      "Ġkannst": 8058,
      "AM": 8059,
      "ĠVermitt": 8060,
      "ĠRomania": 8061,
      "Ġschlecht": 8062,
      "lechter": 8063,
      "umm": 8064,
      "ĠWein": 8065,
      "Ġrasch": 8066,
      "ĠKMU": 8067,
      "lav": 8068,
      "ĠJournal": 8069,
      "ĠHerz": 8070,
      "ĠKontroll": 8071,
      "Ġmutual": 8072,
      "ĠBemerkungen": 8073,
      "Ġwoman": 8074,
      "schaftliche": 8075,
      "ST": 8076,
      "Ġersch": 8077,
      "General": 8078,
      "Ġimmediate": 8079,
      "Her": 8080,
      "Ġgehe": 8081,
      "Ġattitude": 8082,
      "sprogramm": 8083,
      "ausschuÃŁ": 8084,
      "ĠKlimawandel": 8085,
      "Ġforced": 8086,
      "ibet": 8087,
      "Ġinnovative": 8088,
      "Ġpursu": 8089,
      "Ġswe": 8090,
      "Ġcommunic": 8091,
      "Ġlinked": 8092,
      "Ġtreaty": 8093,
      "ĠAuftrag": 8094,
      "Ġfle": 8095,
      "ĠRand": 8096,
      "Ġseines": 8097,
      "Ġrichtigen": 8098,
      "Ġfire": 8099,
      "Ġhost": 8100,
      "ĠOpp": 8101,
      "Ġfrequ": 8102,
      "neimittel": 8103,
      "ico": 8104,
      "brigens": 8105,
      "Ġgelungen": 8106,
      "Ġfordert": 8107,
      "Ġdetails": 8108,
      "Ġguarantees": 8109,
      "Soll": 8110,
      "Ġbringing": 8111,
      "ventions": 8112,
      "yer": 8113,
      "schau": 8114,
      "tÃ¤us": 8115,
      "icks": 8116,
      "Ġdesire": 8117,
      "ĠUnabhÃ¤ngigkeit": 8118,
      "Ġnumer": 8119,
      "ĠBau": 8120,
      "Ġhervorheben": 8121,
      "While": 8122,
      "ĠKlein": 8123,
      "Ġbetrachten": 8124,
      "Ġdaraus": 8125,
      "Ġspeakers": 8126,
      "ĠÃľbereinkommen": 8127,
      "ĠVorschlÃ¤gen": 8128,
      "Ġbase": 8129,
      "ĠUnterschiede": 8130,
      "Ġseitens": 8131,
      "ĠKyoto": 8132,
      "ĠEG": 8133,
      "ĠBerÃ": 8134,
      "Ġadequate": 8135,
      "ĠEntlast": 8136,
      "Ġcontinues": 8137,
      "Ġoption": 8138,
      "Ġbureauc": 8139,
      "Ġanwes": 8140,
      "Ġguter": 8141,
      "Kann": 8142,
      "Ġcharge": 8143,
      "Ã¤lter": 8144,
      "Ġopposed": 8145,
      "ohlen": 8146,
      "ĠHeimat": 8147,
      "Ġverlassen": 8148,
      "Ġairport": 8149,
      "ieÃŁen": 8150,
      "ĠPass": 8151,
      "ĠFriedens": 8152,
      "Ġaktuellen": 8153,
      "ĠSorgen": 8154,
      "ĠGet": 8155,
      "Ġsubstances": 8156,
      "Ġevaluation": 8157,
      "ĠPolizei": 8158,
      "Ġexpression": 8159,
      "ĠZustÃ¤ndigkeit": 8160,
      "Ġsituations": 8161,
      "ĠerhÃ¤lt": 8162,
      "Ġnachdem": 8163,
      "Ġzweifellos": 8164,
      "Ġsecret": 8165,
      "UNG": 8166,
      "Ġausger": 8167,
      "reitag": 8168,
      "Ġu": 8169,
      "Ġtoler": 8170,
      "tru": 8171,
      "Ġkilled": 8172,
      "Ġmittl": 8173,
      "auso": 8174,
      "schiedet": 8175,
      "leiten": 8176,
      "ĠGewÃ¤hr": 8177,
      "geg": 8178,
      "Ġjur": 8179,
      "Ġtechnische": 8180,
      "ĠVersion": 8181,
      "Ġtraditional": 8182,
      "Ġverstehe": 8183,
      "ĠWestern": 8184,
      "IF": 8185,
      "ĠOber": 8186,
      "Ġentstehen": 8187,
      "Ġjeweiligen": 8188,
      "Ã¤fen": 8189,
      "ĠTreffen": 8190,
      "Ġwide": 8191
    },
    "merges": [
      "e n",
      "e r",
      "i n",
      "Ġ t",
      "c h",
      "Ġ d",
      "Ġ a",
      "o n",
      "e s",
      "Ġt h",
      "i s",
      "Ġ w",
      "u n",
      "i t",
      "Ġ s",
      "a t",
      "i e",
      "o r",
      "Ġth e",
      "a n",
      "r e",
      "i ch",
      "Ġ b",
      "Ġ m",
      "i on",
      "Ġ o",
      "Ġ in",
      "a r",
      "Ġ f",
      "a l",
      "a s",
      "Ġ h",
      "u r",
      "t e",
      "Ġ e",
      "l e",
      "Ġ n",
      "Ġ p",
      "Ġa n",
      "Ġ c",
      "u s",
      "en t",
      "g e",
      "Ġ un",
      "Ġt o",
      "Ġo f",
      "Ã ¤",
      "un g",
      "o m",
      "Ġd ie",
      "l l",
      "Ġ v",
      "in g",
      "Ġd er",
      "Ġb e",
      "Ġ is",
      "Ġ E",
      "Ġan d",
      "i r",
      "e d",
      "r o",
      "Ġ S",
      "s t",
      "Ġun d",
      "i g",
      "Ġ g",
      "Ġ z",
      "Ġ A",
      "Ġe in",
      "i m",
      "i c",
      "e m",
      "r a",
      "u t",
      "Ġ M",
      "Ġ P",
      "e l",
      "o p",
      "t er",
      "e it",
      "Ġ B",
      "ich t",
      "o l",
      "i es",
      "i d",
      "a m",
      "Ġ re",
      "Ġ I",
      "at ion",
      "t en",
      "s ch",
      "i l",
      "u l",
      "e t",
      "b er",
      "v e",
      "d er",
      "h r",
      "Ġ l",
      "Ġ k",
      "d en",
      "Ġth at",
      "u m",
      "om m",
      "c t",
      "Ġd as",
      "Ġ K",
      "e in",
      "u f",
      "l ich",
      "a b",
      "g en",
      "o t",
      "Ġ F",
      "Ġ R",
      "Ġ G",
      "is ch",
      "T h",
      "Ġf or",
      "Ġz u",
      "er e",
      "Ã Ł",
      "Ġd en",
      "Ġ on",
      "Ġ V",
      "ur op",
      "Ġw ir",
      "Ġ C",
      "Ġw h",
      "Ġ ge",
      "l y",
      "i er",
      "d e",
      "r es",
      "o s",
      "is s",
      "Ġw e",
      "Ġ H",
      "Ġa l",
      "o w",
      "or t",
      "ĠE urop",
      "u ch",
      "Ġis t",
      "Ġ W",
      "an d",
      "Ġ im",
      "Ġ U",
      "Ġ D",
      "v er",
      "Ġv er",
      "Ġf Ã",
      "a ch",
      "Ġp ro",
      "c e",
      "t r",
      "Ġd ies",
      "Ġ it",
      "f f",
      "Ġ er",
      "es t",
      "Ġ y",
      "Ġs o",
      "Ġc on",
      "Ġv on",
      "Ġ L",
      "i ll",
      "Ġh a",
      "es s",
      "o u",
      "Ġa uf",
      "Ġn icht",
      "Ġth is",
      "k t",
      "Ġ T",
      "it h",
      "Ġa re",
      "m en",
      "a y",
      "Ġn e",
      "Ġa s",
      "Ġ Ã",
      "f t",
      "ĠV er",
      "Ġw ith",
      "k e",
      "omm iss",
      "Ġd es",
      "p p",
      "Ġs t",
      "in d",
      "Ġn ot",
      "m ent",
      "Th e",
      "h er",
      "isch en",
      "Ġd e",
      "ul d",
      "Ġs e",
      "ĠU n",
      "h t",
      "Ġdas s",
      "Ġha ve",
      "o uld",
      "at e",
      "ung en",
      "ommiss ion",
      "Ġw er",
      "c k",
      "Ġ j",
      "Ġ Z",
      "Ġm it",
      "i v",
      "l a",
      "Ġal s",
      "Ġein e",
      "Ġ es",
      "an t",
      "en d",
      "s p",
      "Ġd a",
      "Ġd em",
      "us t",
      "i f",
      "Ġ ich",
      "i b",
      "an n",
      "ĠEurop e",
      "Ġ N",
      "Ġwer den",
      "i ve",
      "Ġ r",
      "ĠS t",
      "n en",
      "f or",
      "Ġ le",
      "Ġa ll",
      "Ã¤ n",
      "id ent",
      "it y",
      "Ġs h",
      "Ġm e",
      "i al",
      "en s",
      "a d",
      "Ġw ill",
      "o ur",
      "a h",
      "l ie",
      "Ġe x",
      "Ġy ou",
      "Ġh ab",
      "n e",
      "o un",
      "ĠR e",
      "s te",
      "q u",
      "ar t",
      "Ġa b",
      "Ġm Ã",
      "Ġs ich",
      "s en",
      "w e",
      "Ġun s",
      "is t",
      "a us",
      "o ch",
      "am ent",
      "Ġwh ich",
      "h en",
      "un d",
      "Ġw as",
      "Ġa uch",
      "I ch",
      "ĠI n",
      "ar l",
      "u g",
      "ig en",
      "Ġ J",
      "i k",
      "ĠA n",
      "a in",
      "te d",
      "ie l",
      "er r",
      "er s",
      "ĠEurope an",
      "i en",
      "a g",
      "Ġb y",
      "b en",
      "Ġv or",
      "us s",
      "al l",
      "u re",
      "Ġh as",
      "Ġa t",
      "ung s",
      "ion s",
      "Ġ res",
      "p ort",
      "h al",
      "p e",
      "r om",
      "Ġ i",
      "D ie",
      "Ġa us",
      "sch a",
      "u b",
      "Ġ um",
      "Ġs ch",
      "Ġwir d",
      "u p",
      "er n",
      "Ġh at",
      "o d",
      "Ġ or",
      "Ġs ind",
      "ĠP arl",
      "z e",
      "ĠUn ion",
      "Ġhab en",
      "r Ã¤",
      "t s",
      "Ġd o",
      "a hr",
      "Ġh e",
      "Ġc om",
      "Ġw ie",
      "et z",
      "ĠE n",
      "Ġs ie",
      "en n",
      "isch e",
      "ĠS ch",
      "ig ht",
      "es ch",
      "Ġw or",
      "I n",
      "scha ft",
      "ol it",
      "h eit",
      "ĠB e",
      "m e",
      "a k",
      "ĠC ommission",
      "ll en",
      "ar d",
      "t z",
      "u e",
      "f Ã",
      "ĠS ie",
      "Ġals o",
      "r an",
      "ĠA r",
      "Ġs ein",
      "r Ã",
      "Ġa g",
      "s e",
      "W e",
      "ĠP ro",
      "em ber",
      "is e",
      "b eit",
      "it te",
      "t h",
      "ter n",
      "ĠE U",
      "Ġ O",
      "es e",
      "Ġa m",
      "i ge",
      "Ġ us",
      "an g",
      "Ġz ur",
      "Ġf rom",
      "d u",
      "k eit",
      "a ge",
      "Ġ ent",
      "Ġth ere",
      "o us",
      "b e",
      "Ġ en",
      "ĠF ra",
      "ĠEurop Ã¤",
      "ĠE r",
      "at en",
      "Ġk Ã",
      "u d",
      "at es",
      "ch te",
      "Ġm an",
      "Ġw ould",
      "or e",
      "er en",
      "i p",
      "ation s",
      "i z",
      "ĠA us",
      "ation al",
      "er t",
      "Ġm a",
      "t her",
      "o ut",
      "Ġg o",
      "Ġd ar",
      "Ã¤ t",
      "ĠK ommission",
      "Ġo ur",
      "e ct",
      "ur ch",
      "om e",
      "Ġc an",
      "Ġ ch",
      "o k",
      "Ġsh ould",
      "ic k",
      "rÃ¤ s",
      "I t",
      "Ã¤ r",
      "ĠB er",
      "lich en",
      "m er",
      "o g",
      "der n",
      "Ġre g",
      "as t",
      "W ir",
      "ul t",
      "ab le",
      "or d",
      "Ġp art",
      "ĠP res",
      "Ġun ter",
      "i re",
      "r it",
      "Ġa d",
      "rÃ¤s ident",
      "ch t",
      "Ġda ÃŁ",
      "ĠV or",
      "omm en",
      "o st",
      "t w",
      "h e",
      "u te",
      "Ġm ust",
      "Ġn ach",
      "ic al",
      "Ġf a",
      "Ġb ut",
      "Ġbe en",
      "r i",
      "as s",
      "m s",
      "c c",
      "u ÃŁ",
      "Ġein er",
      "ct ion",
      "h l",
      "in e",
      "b le",
      "ein e",
      "it ion",
      "an k",
      "Ġw ar",
      "Ġcom p",
      "ĠG e",
      "Ġein en",
      "D as",
      "Ġi h",
      "an z",
      "o c",
      "Ġdies e",
      "o ll",
      "ĠA b",
      "Ġl i",
      "for m",
      "a p",
      "ier en",
      "g er",
      "is h",
      "Ġs a",
      "c on",
      "Ġbe t",
      "Ġbe i",
      "s sen",
      "ĠM it",
      "ch en",
      "ĠPres ident",
      "l o",
      "Ġa pp",
      "re at",
      "ĠP rÃ¤sident",
      "ar y",
      "v el",
      "im m",
      "Ġs u",
      "e ar",
      "Ġc oun",
      "ĠM r",
      "Ġ qu",
      "im e",
      "Ġso ll",
      "Ġs te",
      "g t",
      "c ial",
      "Ġit s",
      "os e",
      "Th is",
      "lich e",
      "Ġw ur",
      "i ament",
      "E s",
      "ĠH err",
      "Ġg ro",
      "g lie",
      "ĠParl ament",
      "i a",
      "Ġn och",
      "m p",
      "r u",
      "Ġm ore",
      "el t",
      "ut ion",
      "Ġd urch",
      "ĠM ember",
      "Ġk ann",
      "Ġdies er",
      "Ġne ed",
      "Ġd is",
      "an ce",
      "Ġg en",
      "Ġc omm",
      "Ġli ke",
      "r at",
      "id e",
      "st a",
      "Ġcoun tr",
      "ra g",
      "Ġs p",
      "n nen",
      "ĠE in",
      "r en",
      "ier t",
      "Ġp os",
      "res s",
      "on e",
      "al ly",
      "p t",
      "Ġm y",
      "Ġf in",
      "ol le",
      "Ġo b",
      "Ġt e",
      "ar k",
      "Ġal le",
      "f en",
      "z u",
      "a re",
      "Ġn ur",
      "ĠMit glie",
      "Ġo ut",
      "Ġs tr",
      "Ġim p",
      "Ġr ight",
      "Ġo der",
      "ic e",
      "Ġthe ir",
      "Ġre port",
      "Ġwor k",
      "Ġb es",
      "ier ung",
      "Ġpro p",
      "c il",
      "g es",
      "Ġon e",
      "Ġin c",
      "Ġa ber",
      "on g",
      "ig n",
      "ĠEuropÃ¤ ischen",
      "Ġp olit",
      "Ġwh o",
      "am e",
      "o in",
      "Ġthe y",
      "ĠParl iament",
      "a u",
      "Ġz um",
      "i ff",
      "Ġver y",
      "el y",
      "Ġcon t",
      "Ġp e",
      "Ġ up",
      "n ah",
      "r ie",
      "Ġn o",
      "Ġwh at",
      "sch en",
      "em ent",
      "h men",
      "Ġim port",
      "in k",
      "Ġab out",
      "Ġi hr",
      "r und",
      "er v",
      "Ġw enn",
      "Ġo ther",
      "g an",
      "for e",
      "Ġs pe",
      "Ġt a",
      "ĠSt ates",
      "w er",
      "g lich",
      "ff en",
      "y ste",
      "Ġdies em",
      "n d",
      "Ġz w",
      "ig keit",
      "ch e",
      "ĠMitglie d",
      "o v",
      "Ġth ese",
      "Ġsu pp",
      "c y",
      "Ġj ed",
      "ra m",
      "Ġb er",
      "Ġcon s",
      "Ġc o",
      "Ġin t",
      "Ġw eit",
      "Ġg es",
      "Ġbe c",
      "as e",
      "Ġse hr",
      "on s",
      "Ġp re",
      "at ed",
      "ĠC oun",
      "ĠAr beit",
      "Ġcon c",
      "Ġp ol",
      "icht ig",
      "n ow",
      "a uf",
      "etz t",
      "Ġe ff",
      "r ing",
      "ĠBer icht",
      "ĠCoun cil",
      "n er",
      "l ic",
      "c ed",
      "st en",
      "D ies",
      "ĠD e",
      "Ġy our",
      "ĠUn ter",
      "Ġt ime",
      "aus e",
      "Ã¤ hr",
      "am men",
      "kt ion",
      "D er",
      "a ck",
      "re e",
      "Ġt ra",
      "ut z",
      "le ich",
      "urop Ã¤",
      "ĠL e",
      "t schaft",
      "Ġne w",
      "Ġein em",
      "us ammen",
      "ĠRe g",
      "Ġp r",
      "sta aten",
      "st it",
      "id en",
      "te t",
      "Ġex p",
      "ĠM a",
      "st Ã",
      "ĠM en",
      "g ram",
      "Ġa cc",
      "Ġh ier",
      "as sen",
      "ah l",
      "op le",
      "Ġme hr",
      "Ġin ter",
      "Ġge gen",
      "l and",
      "on t",
      "j ect",
      "itte l",
      "w o",
      "ĠJ ahr",
      "l os",
      "Ġ ra",
      "c es",
      "olit ik",
      "ment s",
      "ge l",
      "Ġw o",
      "Ġm ein",
      "i le",
      "ib le",
      "Ġy ear",
      "Ġprop os",
      "u en",
      "i an",
      "re ich",
      "lie ÃŁ",
      "il d",
      "Ġk now",
      "Ġan y",
      "o te",
      "Ġwur de",
      "Ġe v",
      "b ar",
      "Ġe uropÃ¤",
      "Ġpol ic",
      "h Ã",
      "Ġh in",
      "ĠW e",
      "ĠR at",
      "te il",
      "Ġn ow",
      "l in",
      "h n",
      "i ous",
      "it ies",
      "it Ã¤t",
      "Ġ if",
      "Ġs ol",
      "o b",
      "f er",
      "ge b",
      "Ġin tern",
      "Ġpe ople",
      "Ġge m",
      "f e",
      "on der",
      "ch n",
      "Ġin d",
      "Ġcountr ies",
      "ĠA uf",
      "ib t",
      "Ġon ly",
      "Ġp l",
      "vel op",
      "at ive",
      "Ġm uss",
      "e ver",
      "it u",
      "sch e",
      "ĠMitglied staaten",
      "ing s",
      "Ġm ich",
      "Ġimport ant",
      "c ess",
      "al t",
      "Ġde c",
      "ĠT e",
      "al s",
      "s s",
      "f ahr",
      "Ġj ust",
      "f l",
      "ar beit",
      "M r",
      "Ġo p",
      "er g",
      "ent ion",
      "Ġa r",
      "an ge",
      "Ġhab e",
      "x t",
      "ĠMen schen",
      "Ġf e",
      "ĠC h",
      "Ġag ain",
      "id er",
      "Y ou",
      "iv en",
      "Ġih re",
      "Ġge w",
      "con om",
      "it e",
      "Ġs ome",
      "s am",
      "Ġ ro",
      "W h",
      "Ġh er",
      "Ġp er",
      "Ġbe g",
      "Ġt ran",
      "at ter",
      "Ġle g",
      "Ã¤n d",
      "am p",
      "Ġa ct",
      "is m",
      "ir st",
      "Ġdies es",
      "Ġuns er",
      "k en",
      "Ġde velop",
      "Ġv ie",
      "hal ten",
      "or s",
      "ll t",
      "Ġre c",
      "Ġh ow",
      "ĠS e",
      "ul ar",
      "Ġd u",
      "ĠC omm",
      "le ar",
      "Ġsupp ort",
      "Ġv iel",
      "Ġta ke",
      "ĠEn t",
      "Ġpart ic",
      "Ġund er",
      "il ity",
      "k ommen",
      "w end",
      "Ġge t",
      "Ġis s",
      "S ie",
      "H err",
      "ent s",
      "ate g",
      "an s",
      "ble m",
      "ich er",
      "ĠB Ã",
      "Ġs uch",
      "l d",
      "Ġ Th",
      "Ġthe m",
      "ĠVor sch",
      "Ġpro v",
      "Ġint o",
      "l ung",
      "ur es",
      "h and",
      "Ġw ere",
      "Ġs ay",
      "ach t",
      "Ã¤n der",
      "hal b",
      "ĠI h",
      "Ġpro du",
      "Ġbec ause",
      "Ġs ub",
      "Ġma ke",
      "yste m",
      "Ġpolic y",
      "h a",
      "w ir",
      "l ar",
      "Ġin s",
      "Ġw Ã",
      "itu ation",
      "l Ã¤",
      "Ġn ational",
      "Ġin v",
      "ĠZ eit",
      "ĠW ir",
      "if ic",
      "Ġm ir",
      "Ġd ire",
      "Ġd am",
      "ra uch",
      "ĠEn tw",
      "s icht",
      "ie d",
      "Ġw ay",
      "at z",
      "Ġe conom",
      "re i",
      "Ġw el",
      "oin t",
      "ĠS p",
      "at er",
      "d ay",
      "Ġre l",
      "f ol",
      "Ġwh en",
      "l le",
      "Ġd iff",
      "form ation",
      "Ġt r",
      "Ġth ink",
      "ig t",
      "ne hmen",
      "is ten",
      "ľ ber",
      "Ġintern ational",
      "iss en",
      "Ġh ere",
      "Ġber eit",
      "hr en",
      "ĠEuropÃ¤ ische",
      "ĠEurop a",
      "ol og",
      "n der",
      "ver y",
      "Ã¤ ch",
      "ĠÃ Ħ",
      "d s",
      "Ġk eine",
      "hal t",
      "Ġo ver",
      "Ġg ibt",
      "u al",
      "i ÃŁ",
      "we en",
      "ĠG rund",
      "nah men",
      "Ġw ant",
      "Ġm ark",
      "u es",
      "ĠVer b",
      "um an",
      "Ġse e",
      "Ġbet ween",
      "ess en",
      "le gen",
      "Ġs ow",
      "t re",
      "Ġth ose",
      "k te",
      "ĠZ usammen",
      "in n",
      "Ġb in",
      "pe ct",
      "ard s",
      "iv es",
      "Ġdies en",
      "ĠEntw ick",
      "Th at",
      "la g",
      "us tr",
      "Ġgro ÃŁ",
      "ach en",
      "Ġb is",
      "i ent",
      "Ġb est",
      "Ġbe lie",
      "f r",
      "le d",
      "Ġh el",
      "ou g",
      "it t",
      "ĠAr t",
      "m al",
      "Ġp res",
      "et h",
      "ĠF or",
      "un ity",
      "ĠU m",
      "n ung",
      "Ġconc ern",
      "Ġf irst",
      "ĠG es",
      "z eit",
      "Ġt ak",
      "z ie",
      "ĠMa ÃŁ",
      "ab e",
      "ĠL and",
      "in is",
      "Ġag re",
      "Ġde b",
      "Ġein es",
      "Ġfa ct",
      "ig h",
      "Ġpartic ular",
      "ĠÃ ľber",
      "z ial",
      "er ation",
      "Ġl a",
      "Ġma de",
      "Ġl o",
      "ĠB ed",
      "sch lieÃŁ",
      "Ġqu est",
      "Ġth an",
      "ig er",
      "ch ts",
      "b st",
      "un kt",
      "Ġb as",
      "it z",
      "w or",
      "l Ã",
      "ig ung",
      "Ġthere fore",
      "Ġw ichtig",
      "le g",
      "a ct",
      "r ger",
      "Ġas s",
      "Ġgo od",
      "p ro",
      "Ġzw ischen",
      "ver n",
      "in nen",
      "ge t",
      "Th ere",
      "men d",
      "st r",
      "Ġc lear",
      "for der",
      "Ġbe ing",
      "Ġmark et",
      "Ġ end",
      "w n",
      "et t",
      "Ġre m",
      "Ġuns ere",
      "ĠH aus",
      "Ġapp ro",
      "ĠK olle",
      "is ion",
      "stit ution",
      "Ġk on",
      "ug h",
      "Ġpos s",
      "Ġk ein",
      "Ġha d",
      "Ġg reat",
      "Ġdam it",
      "Ġd ann",
      "h in",
      "is ation",
      "at s",
      "Ġweit er",
      "o ff",
      "Ã¤ l",
      "at ing",
      "t rag",
      "Ġh uman",
      "el s",
      "Ġh and",
      "r t",
      "Ġof f",
      "Ġf re",
      "Ġs on",
      "icher heit",
      "Ġe mp",
      "Ġim mer",
      "n is",
      "Ġdis c",
      "ur al",
      "ĠÃĦ nder",
      "er m",
      "Ġres p",
      "uÃŁ er",
      "Ġre qu",
      "f in",
      "E r",
      "Ġh is",
      "Ġpolit ical",
      "u ll",
      "Ġl ie",
      "gen d",
      "v or",
      "ent r",
      "Ġgem ein",
      "ar m",
      "Ġman y",
      "ĠFra ge",
      "en den",
      "ver s",
      "Ġs el",
      "v ed",
      "Ġre p",
      "Ġc ur",
      "st and",
      "ub lic",
      "Ġad d",
      "u er",
      "l an",
      "ot h",
      "Ġst at",
      "Ġbelie ve",
      "re chen",
      "k l",
      "H ow",
      "Ġjed och",
      "ĠS te",
      "ent ly",
      "en e",
      "Ġwe ll",
      "Ġright s",
      "Ġsoll te",
      "om p",
      "Ġwie der",
      "ĠeuropÃ¤ ischen",
      "Ġg esch",
      "Ġein z",
      "Ġand eren",
      "Ã¤n dern",
      "ĠG em",
      "ĠK on",
      "Ġsoll ten",
      "a il",
      "ĠFra u",
      "Ġe very",
      "Ġyear s",
      "l es",
      "ĠM ar",
      "or y",
      "it i",
      "Ġt wo",
      "Ġc ould",
      "d em",
      "Ġhe ute",
      "Ġp la",
      "Ġg anz",
      "w ay",
      "ad y",
      "ĠB ere",
      "ĠS tr",
      "t y",
      "ers on",
      "we ise",
      "Ġbes te",
      "H e",
      "itte e",
      "ra gen",
      "a c",
      "g r",
      "Ġg er",
      "ic ult",
      "Ġj etzt",
      "Ġdo es",
      "B e",
      "Ġf und",
      "Ġm eine",
      "re d",
      "Ġwh ere",
      "ch ten",
      "ow n",
      "Ġn at",
      "tr Ã¤",
      "ct ive",
      "Ġev en",
      "Ġv om",
      "r de",
      "le ment",
      "Ġc our",
      "ion en",
      "ce pt",
      "Ġagre ement",
      "Ġagain st",
      "Ġa c",
      "ĠGem ein",
      "k s",
      "Ġus e",
      "ĠBere ich",
      "iss e",
      "Ġg u",
      "Ġme as",
      "Ġb ring",
      "Ġg ut",
      "ĠI ch",
      "ic es",
      "Ġeconom ic",
      "op e",
      "Ġden n",
      "Ġinc l",
      "ic t",
      "Ġe tw",
      "al e",
      "isch er",
      "r is",
      "c ted",
      "ut h",
      "Ġpro te",
      "f all",
      "um ent",
      "Ġan ge",
      "h ne",
      "it ed",
      "Ġf est",
      "la ub",
      "Ġth ro",
      "l s",
      "Ġp oint",
      "W enn",
      "Ġge ht",
      "Ġunter stÃ",
      "oug h",
      "ent lich",
      "tz en",
      "el n",
      "Ġvie w",
      "Ġwur den",
      "ĠMaÃŁ nahmen",
      "r icht",
      "r y",
      "Ġeff ect",
      "imm t",
      "Ġz we",
      "ert ain",
      "esch Ã¤",
      "hr t",
      "A s",
      "ĠSt a",
      "ge ben",
      "Ġto o",
      "Ġor der",
      "er ung",
      "Ġver b",
      "Ġre al",
      "am en",
      "Ġs ame",
      "ĠF in",
      "n n",
      "Ġbereit s",
      "or te",
      "Ġm ost",
      "ĠK ommiss",
      "Ġo pp",
      "Ġm uch",
      "ĠR icht",
      "Ġso cial",
      "Ġm on",
      "ste ll",
      "Ã¤ re",
      "Ġsa id",
      "Wh at",
      "S o",
      "sch ie",
      "Ġdeb ate",
      "ra ft",
      "un den",
      "it iz",
      "w eit",
      "f ul",
      "s uch",
      "Ġquest ion",
      "v ing",
      "f eren",
      "f ter",
      "Ġsa gen",
      "Ġson dern",
      "Ġcur r",
      "D a",
      "Ġiss ue",
      "ĠIh nen",
      "Ġc l",
      "m ittel",
      "Ġfin an",
      "Ġst ill",
      "Ġf ind",
      "ĠKommiss ar",
      "Ġs c",
      "Ġthro ugh",
      "A n",
      "ĠM e",
      "Ġtran sp",
      "Ġpropos al",
      "rit t",
      "fahr en",
      "Ġs erv",
      "Ġc ann",
      "Ġcont in",
      "i o",
      "e kt",
      "um ber",
      "W as",
      "ir on",
      "ĠCommission er",
      "Ġposs ible",
      "ĠEntwick lung",
      "E in",
      "z en",
      "ut ure",
      "Ġte chn",
      "Ġcann ot",
      "Ġm ay",
      "U n",
      "ous e",
      "Ġc itiz",
      "is p",
      "ur o",
      "Ġwir k",
      "U nd",
      "Ġsow ie",
      "Ġsch on",
      "Ġdevelop ment",
      "p h",
      "etz en",
      "Ġf uture",
      "l ish",
      "ul ation",
      "Ġs ystem",
[...]
